

#ifndef DRONE_MODEL_H
#define DRONE_MODEL_H

#include <stdint.h>
#include <Arduino.h>

#define DRONE_MODEL_SEGMENTS 23
#define DRONE_MODEL_SEGMENT_SIZE 1024
#define DRONE_MODEL_TOTAL_SIZE 22896

const uint8_t drone_model_segment_0[] PROGMEM = {
    0x20, 0x00, 0x00, 0x00, 0x54, 0x46, 0x4c, 0x33, 0x00, 0x00, 0x00, 0x00, 0x14, 0x00, 0x20, 0x00, 0x1c, 0x00, 0x18, 0x00, 0x14, 0x00, 0x10, 0x00, 0x0c, 0x00, 0x00, 0x00, 0x08, 0x00, 0x04, 0x00, 0x14, 0x00, 0x00, 0x00, 0x1c, 0x00, 0x00, 0x00, 0x88, 0x00, 0x00, 0x00, 0x08, 0x01, 0x00, 0x00, 0x3c, 0x22, 0x00, 0x00, 0x4c, 0x22, 0x00, 0x00, 0x78, 0x58, 0x00, 0x00, 0x03, 0x00, 0x00, 0x00, 0x01, 0x00, 0x00, 0x00, 0x04, 0x00, 0x00, 0x00, 0xe2, 0xdc, 0xff, 0xff, 0x0c, 0x00, 0x00, 0x00, 0x1c, 0x00, 0x00, 0x00, 0x3c, 0x00, 0x00, 0x00, 0x0f, 0x00, 0x00, 0x00, 0x73, 0x65, 0x72, 0x76, 0x69, 0x6e, 0x67, 0x5f, 0x64, 0x65, 0x66, 0x61, 0x75, 0x6c, 0x74, 0x00, 0x01, 0x00, 0x00, 0x00, 0x04, 0x00, 0x00, 0x00, 0x6c, 0xff, 0xff, 0xff, 0x26, 0x00, 0x00, 0x00, 0x04, 0x00, 0x00, 0x00, 0x08, 0x00, 0x00, 0x00, 0x6f, 0x75, 0x74, 0x70, 0x75, 0x74, 0x5f, 0x30, 0x00, 0x00, 0x00, 0x00, 0x01, 0x00, 0x00, 0x00, 0x04, 0x00, 0x00, 0x00, 0xea, 0xdc, 0xff, 0xff, 0x04, 0x00, 0x00, 0x00, 0x0b, 0x00, 0x00, 0x00, 0x73, 0x70, 0x65, 0x63, 0x74, 0x72, 0x6f, 0x67, 0x72, 0x61, 0x6d, 0x00, 0x03, 0x00, 0x00, 0x00, 0x5c, 0x00, 0x00, 0x00, 0x2c, 0x00, 0x00, 0x00, 0x04, 0x00, 0x00, 0x00, 0xb8, 0xff, 0xff, 0xff, 0x2a, 0x00, 0x00, 0x00, 0x04, 0x00, 0x00, 0x00, 0x13, 0x00, 0x00, 0x00, 0x43, 0x4f, 0x4e, 0x56, 0x45, 0x52, 0x53, 0x49, 0x4f, 0x4e, 0x5f, 0x4d, 0x45, 0x54, 0x41, 0x44, 0x41, 0x54, 0x41, 0x00, 0xdc, 0xff, 0xff, 0xff, 0x29, 0x00, 0x00, 0x00, 0x04, 0x00, 0x00, 0x00, 0x13, 0x00, 0x00, 0x00, 0x6d, 0x69, 0x6e, 0x5f, 0x72, 0x75, 0x6e, 0x74, 0x69, 0x6d, 0x65, 0x5f, 0x76, 0x65, 0x72, 0x73, 0x69, 0x6f, 0x6e, 0x00, 0x08, 0x00, 0x0c, 0x00, 0x08, 0x00, 0x04, 0x00, 0x08, 0x00, 0x00, 0x00, 0x28, 0x00, 0x00, 0x00, 0x04, 0x00, 0x00, 0x00, 0x13, 0x00, 0x00, 0x00, 0x6d, 0x69, 0x6e, 0x5f, 0x72, 0x75, 0x6e, 0x74, 0x69, 0x6d, 0x65, 0x5f, 0x76, 0x65, 0x72, 0x73, 0x69, 0x6f, 0x6e, 0x00, 0x2b, 0x00, 0x00, 0x00, 0x30, 0x21, 0x00, 0x00, 0x28, 0x21, 0x00, 0x00, 0x14, 0x21, 0x00, 0x00, 0x00, 0x21, 0x00, 0x00, 0xec, 0x20, 0x00, 0x00, 0x5c, 0x20, 0x00, 0x00, 0x4c, 0x1f, 0x00, 0x00, 0x3c, 0x13, 0x00, 0x00, 0x7c, 0x11, 0x00, 0x00, 0xac, 0x10, 0x00, 0x00, 0xa4, 0x10, 0x00, 0x00, 0x94, 0x0a, 0x00, 0x00, 0x64, 0x09, 0x00, 0x00, 0xd4, 0x08, 0x00, 0x00, 0xcc, 0x08, 0x00, 0x00, 0xbc, 0x05, 0x00, 0x00, 0xd4, 0x04, 0x00, 0x00, 0x64, 0x04, 0x00, 0x00, 0x5c, 0x04, 0x00, 0x00, 0xcc, 0x02, 0x00, 0x00, 0x2c, 0x02, 0x00, 0x00, 0xdc, 0x01, 0x00, 0x00, 0xd4, 0x01, 0x00, 0x00, 0x34, 0x01, 0x00, 0x00, 0x2c, 0x01, 0x00, 0x00, 0x24, 0x01, 0x00, 0x00, 0x1c, 0x01, 0x00, 0x00, 0x14, 0x01, 0x00, 0x00, 0x0c, 0x01, 0x00, 0x00, 0x04, 0x01, 0x00, 0x00, 0xfc, 0x00, 0x00, 0x00, 0xf4, 0x00, 0x00, 0x00, 0xec, 0x00, 0x00, 0x00, 0xe4, 0x00, 0x00, 0x00, 0xdc, 0x00, 0x00, 0x00, 0xd4, 0x00, 0x00, 0x00, 0xcc, 0x00, 0x00, 0x00, 0xc4, 0x00, 0x00, 0x00, 0xbc, 0x00, 0x00, 0x00, 0xb4, 0x00, 0x00, 0x00, 0x94, 0x00, 0x00, 0x00, 0x74, 0x00, 0x00, 0x00, 0x04, 0x00, 0x00, 0x00, 0x36, 0xde, 0xff, 0xff, 0x04, 0x00, 0x00, 0x00, 0x60, 0x00, 0x00, 0x00, 0x0c, 0x00, 0x00, 0x00, 0x08, 0x00, 0x0e, 0x00, 0x08, 0x00, 0x04, 0x00, 0x08, 0x00, 0x00, 0x00, 0x10, 0x00, 0x00, 0x00, 0x28, 0x00, 0x00, 0x00, 0x00, 0x00, 0x06, 0x00, 0x08, 0x00, 0x04, 0x00, 0x06, 0x00, 0x00, 0x00, 0x04, 0x00, 0x00, 0x00, 0x01, 0x00, 0x00, 0x00, 0xeb, 0x03, 0x00, 0x00, 0x0c, 0x00, 0x18, 0x00, 0x14, 0x00, 0x10, 0x00, 0x0c, 0x00, 0x04, 0x00, 0x0c, 0x00, 0x00, 0x00, 0x81, 0x53, 0x80, 0xbd, 0xe7, 0x1b, 0x56, 0x3c, 0x02, 0x00, 0x00, 0x00, 0x02, 0x00, 0x00, 0x00, 0x04, 0x00, 0x00, 0x00, 0x06, 0x00, 0x00, 0x00, 0x32, 0x2e, 0x31, 0x37, 0x2e, 0x30, 0x00, 0x00, 0xa2, 0xde, 0xff, 0xff, 0x04, 0x00, 0x00, 0x00, 0x10, 0x00, 0x00, 0x00, 0x00, 0x00, 0x00, 0x00, 0x00, 0x00, 0x00, 0x00, 0x00, 0x00, 0x00, 0x00, 0x00, 0x00, 0x00, 0x00, 0xbe, 0xde, 0xff, 0xff, 0x04, 0x00, 0x00, 0x00, 0x10, 0x00, 0x00, 0x00, 0x31, 0x2e, 0x31, 0x34, 0x2e, 0x30, 0x00, 0x00, 0x00, 0x00, 0x00, 0x00, 0x00, 0x00, 0x00, 0x00, 0xac, 0xaa, 0xff, 0xff, 0xb0, 0xaa, 0xff, 0xff, 0xb4, 0xaa, 0xff, 0xff, 0xb8, 0xaa, 0xff, 0xff, 0xbc, 0xaa, 0xff, 0xff, 0xc0, 0xaa, 0xff, 0xff, 0xc4, 0xaa, 0xff, 0xff, 0xc8, 0xaa, 0xff, 0xff, 0xcc, 0xaa, 0xff, 0xff, 0xd0, 0xaa, 0xff, 0xff, 0xd4, 0xaa, 0xff, 0xff, 0xd8, 0xaa, 0xff, 0xff, 0xdc, 0xaa, 0xff, 0xff, 0xe0, 0xaa, 0xff, 0xff, 0xe4, 0xaa, 0xff, 0xff, 0xe8, 0xaa, 0xff, 0xff, 0x1a, 0xdf, 0xff, 0xff, 0x04, 0x00, 0x00, 0x00, 0x90, 0x00, 0x00, 0x00, 0x7f, 0x20, 0x20, 0x5a, 0xa5, 0x5f, 0xa3, 0xbb, 0x6b, 0xfa, 0x21, 0x73, 0x56, 0x81, 0xdc, 0xcb, 0xf4, 0x57, 0x0f, 0x8a, 0x25, 0xf6, 0x4d, 0x49, 0x2b, 0x7f, 0xa8, 0xe2, 0x66, 0x70, 0x47, 0x5e, 0x26, 0x41, 0x7f, 0xc9, 0x9e, 0x24, 0x67, 0x7f, 0x31, 0x5f, 0xad, 0x03, 0x90, 0xc0, 0x6f, 0xf3, 0x7f, 0x40, 0x78, 0x2a, 0xc3, 0x9a, 0x63, 0xf1, 0x9d, 0x07, 0xe4, 0x7f, 0x5b, 0x53, 0x21, 0x7f, 0xf5, 0x87, 0x75, 0x2f, 0x92, 0x39, 0x33, 0x34, 0x5f, 0xc0, 0x9c, 0xea, 0xf7, 0x7f, 0xc9, 0x49, 0x83, 0x3e, 0xcc, 0x7f, 0x1f, 0xd4, 0x78, 0xe0, 0x1a, 0x95, 0xd3, 0x5b, 0xd4, 0x2c, 0x83, 0x6e, 0x77, 0x7f, 0x2f, 0x81, 0x28, 0xab, 0x31, 0x03, 0xe4, 0xa7, 0x1a, 0x01, 0x1a, 0x83, 0xb9, 0xfc, 0xe2, 0x81, 0x9a, 0x3f, 0x87, 0x34, 0xb2, 0xde, 0x1d, 0x71, 0x6d, 0x92, 0x27, 0x81, 0xd1, 0xa4, 0x48, 0x5a, 0x81, 0x52, 0x69, 0xd3, 0x6a, 0xc4, 0x55, 0xdb, 0x5c, 0x5d, 0x9a, 0x0c, 0x7f, 0xfd, 0x88, 0xab, 0xff, 0xff, 0xba, 0xdf, 0xff, 0xff, 0x04, 0x00, 0x00, 0x00, 0x40, 0x00, 0x00, 0x00, 0x00, 0x00, 0x00, 0x00, 0x00, 0x00, 0x00, 0x00, 0x00, 0x00, 0x00, 0x00, 0x00, 0x00, 0x00, 0x00, 0x00, 0x00, 0x00, 0x00, 0x00, 0x00, 0x00, 0x00, 0x00, 0x00, 0x00, 0x00, 0x00, 0x00, 0x00, 0x00, 0x00, 0x00, 0x00, 0x00, 0x00, 0x00, 0x00, 0x00, 0x00, 0x00, 0x00, 0x00, 0x00, 0x00, 0x00, 0x00, 0x00, 0x00, 0x00, 0x00, 0x00, 0x00, 0x00, 0x00, 0x00, 0x00, 0x00, 0x00, 0x00, 0x00, 0x00, 0x00, 0x06, 0xe0, 0xff, 0xff, 0x04, 0x00, 0x00, 0x00, 0x90, 0x00, 0x00, 0x00, 0xaa, 0xca, 0x32, 0xcc, 0x0a, 0xd6, 0xcd, 0x75, 0x9a, 0x9a, 0x7f, 0x32, 0x7a, 0xeb, 0x13, 0xe3, 0xde, 0x2c, 0x3f, 0xf5, 0xac, 0x7f, 0x50, 0x29, 0x81, 0xe2, 0xe5, 0xdd, 0xe8, 0x7b, 0x6c, 0xd6, 0xff, 0x3f, 0x55, 0x1e, 0xed, 0xe0, 0x7f, 0x15, 0x77, 0xf4, 0x1a, 0x20, 0x21, 0x81, 0x9a, 0x2f, 0x71, 0x7f, 0x81, 0x29, 0x72, 0xc9, 0x90, 0x40, 0x79, 0xfa, 0x89, 0x7f, 0x07, 0xeb, 0x46, 0x28
};

const uint8_t drone_model_segment_1[] PROGMEM = {
    0xe9, 0x94, 0x83, 0x75, 0x7e, 0x39, 0x92, 0x70, 0x9a, 0xad, 0x20, 0xa4, 0xf3, 0xb4, 0x81, 0x91, 0x54, 0x4f, 0xf5, 0x6b, 0x59, 0xdc, 0xb5, 0x04, 0x50, 0x81, 0xe9, 0x32, 0x7f, 0x2c, 0x96, 0x81, 0x7f, 0x3b, 0xf3, 0x81, 0xe9, 0xcb, 0xe8, 0xe8, 0x99, 0x3d, 0x13, 0x4d, 0xbc, 0x4c, 0xe2, 0x94, 0x04, 0xeb, 0x57, 0x4b, 0x32, 0x06, 0xaf, 0xcb, 0xcd, 0x63, 0xda, 0xd2, 0xd8, 0xc0, 0xba, 0x52, 0x27, 0x6f, 0xc4, 0x2e, 0x7f, 0xe2, 0x1c, 0x81, 0xcd, 0x90, 0xaa, 0xe1, 0xb9, 0x16, 0x01, 0xf5, 0xa2, 0xe0, 0xff, 0xff, 0x04, 0x00, 0x00, 0x00, 0x80, 0x01, 0x00, 0x00, 0x43, 0xbc, 0xbe, 0x7f, 0xcc, 0x5c, 0xa1, 0xd1, 0x1c, 0x2b, 0x5c, 0x70, 0xa9, 0xfd, 0x60, 0x53, 0xfb, 0xd2, 0xb2, 0xf8, 0xf5, 0xbf, 0xa6, 0x6f, 0xfe, 0xec, 0x6e, 0xaa, 0x81, 0x63, 0x64, 0xcf, 0x4f, 0x55, 0xe8, 0x2e, 0xc7, 0x83, 0x17, 0x08, 0x69, 0xcf, 0x81, 0x51, 0x0b, 0x54, 0xce, 0x02, 0x17, 0xd7, 0x75, 0xb4, 0x67, 0xa7, 0x67, 0x7f, 0x86, 0xec, 0x94, 0x98, 0x19, 0xd9, 0x2c, 0x24, 0x72, 0xca, 0x6f, 0x88, 0x02, 0x66, 0xb4, 0xa2, 0x81, 0x1b, 0x8e, 0x27, 0x46, 0xa3, 0x9c, 0xdf, 0x3c, 0xb0, 0xd5, 0x73, 0x6b, 0x1a, 0xb2, 0xe3, 0xe0, 0x81, 0x33, 0xa5, 0x21, 0xe2, 0x45, 0xda, 0xfc, 0x2c, 0x9e, 0x7f, 0x0c, 0x29, 0x93, 0x65, 0xbd, 0xc1, 0x0d, 0xda, 0xdf, 0x92, 0x68, 0x8f, 0x7e, 0xf6, 0xe5, 0x9c, 0xe1, 0x82, 0xbd, 0xb8, 0x42, 0x82, 0x02, 0xd1, 0xa4, 0xb7, 0x81, 0x1b, 0xf5, 0xe2, 0x32, 0x55, 0xe5, 0x8b, 0x7f, 0x7e, 0x96, 0x4d, 0x7e, 0xdf, 0x38, 0xa2, 0x6b, 0xac, 0x52, 0x2b, 0x3d, 0x1c, 0x27, 0x67, 0xe6, 0xc8, 0x6f, 0x9c, 0xfa, 0x50, 0xea, 0x7f, 0xcf, 0x44, 0xdd, 0x01, 0x63, 0x8e, 0x38, 0x46, 0x7f, 0x50, 0x9d, 0x8f, 0x25, 0x67, 0xa1, 0x55, 0xbb, 0x8d, 0x72, 0x88, 0xdc, 0x39, 0x76, 0xe5, 0x59, 0xc9, 0x13, 0x41, 0x9e, 0x57, 0x08, 0x09, 0xed, 0x7f, 0xa4, 0x6e, 0xec, 0xa3, 0x5b, 0x88, 0x71, 0x95, 0xa1, 0xa4, 0x11, 0x9c, 0x81, 0xe0, 0x40, 0xf2, 0x0f, 0xf6, 0x4c, 0x2d, 0x85, 0xa4, 0x2e, 0x71, 0xd8, 0x5e, 0xb9, 0x7b, 0x96, 0xdb, 0x46, 0x7f, 0xfa, 0x34, 0x14, 0xa9, 0xb8, 0x59, 0xbb, 0xdd, 0xd7, 0x4b, 0x6d, 0xe8, 0x7e, 0x7f, 0xb7, 0x36, 0x96, 0x03, 0x81, 0xee, 0xae, 0xe3, 0x10, 0xc2, 0x5c, 0xc8, 0x69, 0x00, 0xb0, 0xda, 0x85, 0xa2, 0x1a, 0xc9, 0xda, 0x97, 0x7f, 0x1f, 0xc8, 0xbb, 0x11, 0x37, 0xf8, 0x48, 0x94, 0xb3, 0xec, 0x4d, 0x26, 0x8f, 0x5e, 0xa1, 0xdc, 0xfe, 0xca, 0x11, 0x59, 0xc3, 0x7f, 0x5e, 0xac, 0xf9, 0x35, 0x81, 0xa9, 0xeb, 0x1f, 0x8e, 0x5f, 0x94, 0x9a, 0x48, 0x74, 0x81, 0xba, 0x03, 0xd0, 0xb1, 0x67, 0xbc, 0x95, 0x2b, 0x77, 0xc0, 0x29, 0xf9, 0xee, 0xe1, 0x21, 0x7e, 0x52, 0x16, 0x09, 0xe2, 0x8a, 0x81, 0xfd, 0x4e, 0xc6, 0x9e, 0x0a, 0xaf, 0x0d, 0x10, 0x7f, 0xf9, 0x3b, 0xc1, 0xf6, 0x0c, 0x56, 0x66, 0x7f, 0xcc, 0x27, 0xfb, 0xc3, 0x2f, 0x50, 0xd2, 0xb0, 0x57, 0x0c, 0x1a, 0x1c, 0xbc, 0x47, 0xce, 0x6d, 0x46, 0xfb, 0x0f, 0xe5, 0xb2, 0x4b, 0x3d, 0x96, 0xb2, 0x7f, 0xfc, 0x31, 0xd7, 0x89, 0x84, 0x43, 0x2c, 0xf9, 0x58, 0xbf, 0x97, 0x81, 0x31, 0x9a, 0xcf, 0x13, 0x6b, 0xe1, 0x1b, 0x86, 0x96, 0x00, 0xae, 0xff, 0xff, 0x32, 0xe2, 0xff, 0xff, 0x04, 0x00, 0x00, 0x00, 0x60, 0x00, 0x00, 0x00, 0x00, 0x00, 0x00, 0x00, 0x00, 0x00, 0x00, 0x00, 0x00, 0x00, 0x00, 0x00, 0x00, 0x00, 0x00, 0x00, 0x00, 0x00, 0x00, 0x00, 0x00, 0x00, 0x00, 0x00, 0x00, 0x00, 0x00, 0x00, 0x00, 0x00, 0x00, 0x00, 0x00, 0x00, 0x00, 0x00, 0x00, 0x00, 0x00, 0x00, 0x00, 0x00, 0x00, 0x00, 0x00, 0x00, 0x00, 0x00, 0x00, 0x00, 0x00, 0x00, 0x00, 0x00, 0x00, 0x00, 0x00, 0x00, 0x00, 0x00, 0x00, 0x00, 0x00, 0x00, 0x00, 0x00, 0x00, 0x00, 0x00, 0x00, 0x00, 0x00, 0x00, 0x00, 0x00, 0x00, 0x00, 0x00, 0x00, 0x00, 0x00, 0x00, 0x00, 0x00, 0x00, 0x00, 0x00, 0x00, 0x00, 0x00, 0x00, 0x00, 0x00, 0x00, 0x00, 0x00, 0x9e, 0xe2, 0xff, 0xff, 0x04, 0x00, 0x00, 0x00, 0xd8, 0x00, 0x00, 0x00, 0x7f, 0x6a, 0x30, 0xc7, 0xac, 0x52, 0x76, 0x62, 0x81, 0xd3, 0x0e, 0x9c, 0x3f, 0x1b, 0xa3, 0x0f, 0xef, 0x97, 0xc9, 0xea, 0xe0, 0x85, 0x7f, 0x62, 0x55, 0x48, 0xa5, 0x4a, 0x65, 0x72, 0xdd, 0x81, 0x88, 0x51, 0xd9, 0x7f, 0x4a, 0x37, 0x7f, 0x47, 0x21, 0x5a, 0x2f, 0x7d, 0x3d, 0x94, 0xf0, 0x40, 0x8e, 0x3d, 0xd0, 0x92, 0xd7, 0xf9, 0x7f, 0x81, 0x25, 0x5e, 0x28, 0x99, 0xa2, 0x22, 0xee, 0xc4, 0x94, 0xd9, 0xf7, 0x93, 0x7f, 0x2e, 0x83, 0xad, 0x82, 0x7f, 0x7f, 0xc7, 0x81, 0xe2, 0xe0, 0x4e, 0xcc, 0x0e, 0xdd, 0xe9, 0xa6, 0x48, 0x37, 0x7f, 0x00, 0x7d, 0xc6, 0x2e, 0x56, 0x0b, 0x68, 0x8e, 0x61, 0xb6, 0x65, 0x92, 0x30, 0x96, 0x25, 0xeb, 0x31, 0x81, 0x81, 0xb1, 0x7f, 0x8f, 0xd7, 0x26, 0x7c, 0x76, 0x65, 0x38, 0x07, 0x13, 0x1c, 0xe7, 0xc5, 0xee, 0x66, 0xd6, 0x97, 0x9f, 0x2c, 0xac, 0xf1, 0x6e, 0x99, 0xdc, 0xd9, 0xde, 0xb4, 0x96, 0xba, 0x85, 0xaa, 0x7f, 0x4b, 0x26, 0xcf, 0xac, 0x5f, 0xb5, 0x50, 0x72, 0x70, 0x7f, 0x5c, 0x75, 0x1b, 0x50, 0x6e, 0x1b, 0x7a, 0xa1, 0xf3, 0x40, 0x7b, 0xef, 0x94, 0x56, 0xe6, 0x34, 0xb7, 0x1f, 0x22, 0x93, 0xb9, 0x81, 0x91, 0x00, 0x43, 0x7b, 0xa4, 0xbe, 0x83, 0xca, 0xb6, 0x81, 0x4f, 0x5d, 0x81, 0xca, 0x7f, 0xd0, 0x2f, 0x7f, 0xea, 0xf8, 0x66, 0x3f, 0x05, 0xc7, 0x5d, 0x67, 0x22, 0x4d, 0x7d, 0x68, 0x2f, 0x28, 0x87, 0xf7, 0x44, 0xb8, 0x79, 0x7f, 0x95, 0xbe, 0x10, 0x5c, 0xb8, 0x81, 0x82, 0xe3, 0xff, 0xff, 0x04, 0x00, 0x00, 0x00, 0x00, 0x03, 0x00, 0x00, 0x12, 0x1f, 0x78, 0xf1, 0x64, 0x95, 0x7f, 0x9e, 0xa6, 0xd7, 0x24, 0x04, 0xa5, 0x7f, 0x0b, 0x2d, 0x51, 0x53, 0x3f, 0xae, 0xc4, 0x92, 0xa8, 0x17, 0xb4, 0x70, 0xcf, 0x86, 0x51, 0xbe, 0x5d, 0x81, 0x0e, 0x7b, 0xc3, 0xee, 0x48, 0xea, 0xaf, 0x06, 0xa1, 0xb1, 0x6e, 0xd6, 0xc7, 0xf5, 0x76, 0x3e, 0x8f, 0xe6, 0xae, 0x55, 0x29, 0x17, 0xe5, 0xdf, 0x73, 0x6c, 0xc5, 0xf4, 0xe6, 0x7d, 0xcb, 0xa4, 0x20, 0x71, 0x34, 0x81, 0x3e, 0x39, 0x24, 0x95, 0x5b, 0x32, 0x41, 0x33, 0xa1, 0xfb, 0xe2, 0xc8, 0xdb, 0xdc, 0xe3, 0x5e, 0xda, 0xa3, 0x70, 0x05, 0xde, 0x81, 0x2a, 0x52, 0xa9, 0x77, 0x4c, 0xb0, 0x81, 0x77, 0xd2, 0x55, 0xc0, 0xa8, 0xe8, 0x74, 0xea, 0xb0, 0x01, 0x55, 0x5a, 0x3e, 0x7e, 0xf9, 0x92, 0xde, 0xbd, 0xb8, 0xcf, 0x7f, 0xeb, 0xe8, 0x9c, 0x0a, 0xa8, 0x9d, 0x56, 0x52, 0x0f, 0xda, 0xf3, 0x86, 0x0c, 0x29, 0x19, 0x7f, 0x5f, 0x4d, 0x9a, 0x6a, 0xcd, 0x00, 0xcb, 0x72, 0x16, 0x9b, 0x7c, 0x78, 0xcd, 0xd0, 0x27, 0x5e, 0x8e, 0x3b, 0x45, 0xe5, 0xfa, 0xd7, 0x1c, 0x98, 0x81, 0x0a, 0x9a, 0xf9, 0x9d, 0x62, 0xeb, 0xd3, 0xae, 0x38, 0xb5, 0x2e, 0x1d, 0x10, 0xd4, 0xc0, 0xb4, 0xc0, 0x45, 0xb8, 0x28, 0x17, 0x27, 0x66, 0x67, 0x54, 0xa2, 0xc5, 0xe6, 0xe4, 0x5e, 0x52, 0x42, 0x7f, 0x8f, 0xa9, 0xc6, 0x18
};

const uint8_t drone_model_segment_2[] PROGMEM = {
    0xad, 0x7f, 0x33, 0xd2, 0x63, 0x34, 0x99, 0x83, 0x38, 0x33, 0x96, 0xda, 0xb9, 0x9e, 0xcb, 0x7a, 0x7c, 0x7f, 0x04, 0xda, 0x38, 0xf6, 0xa8, 0x26, 0x4d, 0x14, 0x3c, 0x28, 0x81, 0x14, 0xdf, 0xc3, 0x3a, 0xae, 0x48, 0x48, 0xc0, 0x05, 0x50, 0x1f, 0x97, 0x66, 0x3f, 0xd5, 0x81, 0xd5, 0xa6, 0x89, 0xc9, 0x10, 0x18, 0xdc, 0x34, 0x05, 0x24, 0x2f, 0x75, 0x68, 0xd3, 0x1c, 0x74, 0xa2, 0x5d, 0xd5, 0xa9, 0x30, 0x0f, 0x4d, 0x53, 0xb8, 0xde, 0x27, 0x58, 0x02, 0xe0, 0xcf, 0x11, 0x5a, 0x6c, 0xf1, 0xd0, 0x21, 0x30, 0x93, 0x41, 0xb1, 0xbe, 0x81, 0xff, 0x44, 0xf5, 0xdd, 0x25, 0xae, 0x67, 0xc9, 0x81, 0x6c, 0xcf, 0xcc, 0x15, 0x7a, 0x89, 0x65, 0xb2, 0x32, 0x8f, 0x05, 0x06, 0x5c, 0x41, 0x09, 0xc5, 0x88, 0xc3, 0xe1, 0x61, 0xdf, 0xa0, 0x7a, 0x25, 0xe1, 0x14, 0xf6, 0xdd, 0xe7, 0x5a, 0xcf, 0x02, 0xa1, 0x84, 0xb8, 0x4e, 0xd7, 0x81, 0xf1, 0xf1, 0x27, 0x6e, 0x49, 0x3b, 0xc5, 0x3d, 0x48, 0x3b, 0x7f, 0xf1, 0x37, 0x42, 0x69, 0xf4, 0x6c, 0xbc, 0x0e, 0xc0, 0xaa, 0xa3, 0x90, 0x6f, 0xcb, 0xb8, 0xb5, 0xa4, 0x92, 0x46, 0x8f, 0x5b, 0xba, 0xab, 0x79, 0x28, 0xdc, 0x4d, 0xfa, 0x82, 0x5d, 0xf3, 0x03, 0x84, 0x53, 0x06, 0xd3, 0xc1, 0x28, 0x0c, 0x64, 0x7f, 0xe5, 0x9f, 0xf2, 0xb7, 0xc2, 0x2b, 0x0a, 0x63, 0xf8, 0x33, 0x7f, 0xd2, 0x45, 0xb8, 0x64, 0x8c, 0xf3, 0x79, 0x8f, 0x2a, 0x4f, 0xed, 0x31, 0x62, 0x3f, 0x45, 0x91, 0x4d, 0x87, 0x69, 0xf3, 0x67, 0x4c, 0x74, 0x07, 0x11, 0x95, 0xd5, 0x61, 0xab, 0x42, 0x17, 0xde, 0x8d, 0x67, 0x15, 0x7f, 0x34, 0x50, 0xab, 0x3d, 0x36, 0x96, 0x28, 0xa1, 0x88, 0xf4, 0x2e, 0xea, 0xb2, 0x63, 0x2b, 0x2c, 0x00, 0x45, 0x6c, 0x81, 0xe2, 0x17, 0xab, 0x85, 0x8f, 0x61, 0xa7, 0x81, 0xd0, 0x4a, 0x9f, 0x4d, 0xb3, 0xc6, 0x2c, 0x25, 0x50, 0xe3, 0x8c, 0x1c, 0x00, 0x5d, 0x6a, 0x8c, 0x01, 0xd0, 0xf1, 0x63, 0xff, 0xcc, 0xb3, 0xc5, 0xd9, 0x84, 0xb4, 0x41, 0x3d, 0xf7, 0x55, 0xc7, 0x75, 0x4f, 0x48, 0xb2, 0x81, 0x0e, 0xb1, 0x3e, 0xaf, 0xfd, 0xf1, 0xaf, 0x63, 0x50, 0x07, 0x47, 0x63, 0x1c, 0x8c, 0x3e, 0xab, 0xfa, 0xae, 0xe0, 0x81, 0xd7, 0x22, 0x6f, 0xca, 0xb1, 0x27, 0x20, 0xc1, 0x6d, 0xbb, 0x10, 0xf0, 0x92, 0xfa, 0xc3, 0x70, 0xef, 0x45, 0xbf, 0xc9, 0xe7, 0xd8, 0x81, 0x2a, 0x0c, 0xbe, 0x91, 0x30, 0xb0, 0x95, 0x7f, 0x67, 0x62, 0x04, 0xd8, 0xb3, 0xb0, 0x1b, 0xfd, 0x08, 0x2d, 0xdb, 0x45, 0xfc, 0x09, 0x3b, 0x73, 0xbe, 0x6f, 0x13, 0x8c, 0xc5, 0x81, 0x3b, 0xf1, 0xa1, 0x07, 0x62, 0x0b, 0xee, 0xd3, 0x84, 0x9b, 0x13, 0x17, 0xea, 0x22, 0x56, 0xc8, 0xd4, 0x5d, 0x2f, 0x83, 0x15, 0x2d, 0xeb, 0x59, 0x9d, 0xba, 0xf8, 0x31, 0xca, 0xf5, 0xf8, 0x81, 0x42, 0xea, 0x72, 0x68, 0x66, 0x6d, 0xb1, 0x7f, 0x76, 0x4f, 0x15, 0x83, 0xc5, 0x0e, 0xce, 0x23, 0xa2, 0xb4, 0x8d, 0x3a, 0x18, 0xa6, 0x69, 0x37, 0x22, 0x9b, 0x10, 0x1f, 0xf1, 0x98, 0x19, 0x3e, 0x2b, 0x4a, 0x26, 0x63, 0x9a, 0xde, 0xf5, 0xc8, 0x81, 0x22, 0x5a, 0x7c, 0x4a, 0x51, 0xf0, 0x9f, 0xe1, 0x49, 0x0d, 0x66, 0x6e, 0x31, 0x86, 0x68, 0x9c, 0x40, 0xf2, 0x98, 0x3b, 0x5d, 0x7f, 0xd5, 0x2c, 0x2a, 0x2c, 0xc8, 0xca, 0x41, 0xed, 0x45, 0xcd, 0xf6, 0x79, 0xc3, 0xda, 0x3f, 0x89, 0xca, 0x96, 0xa2, 0x24, 0xfb, 0x61, 0xaf, 0xe2, 0x05, 0x41, 0x84, 0x7f, 0xe6, 0x09, 0xa9, 0xe7, 0xb2, 0x20, 0x76, 0xac, 0x9b, 0x64, 0x07, 0x98, 0x8e, 0x71, 0xd2, 0xfa, 0x81, 0x33, 0x1c, 0xe8, 0x31, 0xc7, 0x50, 0xc3, 0x79, 0x39, 0x88, 0x0b, 0x3d, 0x59, 0x55, 0xe7, 0x38, 0x7f, 0xbe, 0x54, 0xd3, 0xef, 0x1f, 0x24, 0x46, 0x10, 0x7c, 0x5c, 0x8f, 0x88, 0x59, 0x9d, 0xc0, 0x38, 0x20, 0xbb, 0xd0, 0x78, 0x5f, 0x50, 0xeb, 0x81, 0xe5, 0x5f, 0x76, 0x12, 0x79, 0xe3, 0xe2, 0xdf, 0x61, 0x29, 0xd2, 0xdb, 0xdd, 0xfe, 0xee, 0x93, 0x46, 0x1a, 0x47, 0x60, 0xb2, 0xff, 0xff, 0x92, 0xe6, 0xff, 0xff, 0x04, 0x00, 0x00, 0x00, 0x80, 0x00, 0x00, 0x00, 0x00, 0x00, 0x00, 0x00, 0x00, 0x00, 0x00, 0x00, 0x00, 0x00, 0x00, 0x00, 0x00, 0x00, 0x00, 0x00, 0x00, 0x00, 0x00, 0x00, 0x00, 0x00, 0x00, 0x00, 0x00, 0x00, 0x00, 0x00, 0x00, 0x00, 0x00, 0x00, 0x00, 0x00, 0x00, 0x00, 0x00, 0x00, 0x00, 0x00, 0x00, 0x00, 0x00, 0x00, 0x00, 0x00, 0x00, 0x00, 0x00, 0x00, 0x00, 0x00, 0x00, 0x00, 0x00, 0x00, 0x00, 0x00, 0x00, 0x00, 0x00, 0x00, 0x00, 0x00, 0x00, 0x00, 0x00, 0x00, 0x00, 0x00, 0x00, 0x00, 0x00, 0x00, 0x00, 0x00, 0x00, 0x00, 0x00, 0x00, 0x00, 0x00, 0x00, 0x00, 0x00, 0x00, 0x00, 0x00, 0x00, 0x00, 0x00, 0x00, 0x00, 0x00, 0x00, 0x00, 0x00, 0x00, 0x00, 0x00, 0x00, 0x00, 0x00, 0x00, 0x00, 0x00, 0x00, 0x00, 0x00, 0x00, 0x00, 0x00, 0x00, 0x00, 0x00, 0x00, 0x00, 0x00, 0x00, 0x00, 0x00, 0x00, 0x00, 0x00, 0x00, 0x00, 0x00, 0x00, 0x1e, 0xe7, 0xff, 0xff, 0x04, 0x00, 0x00, 0x00, 0x20, 0x01, 0x00, 0x00, 0x4f, 0x13, 0x27, 0x48, 0xa2, 0xdd, 0x1f, 0x23, 0x1c, 0x1e, 0x43, 0x7f, 0x25, 0x31, 0x89, 0x8a, 0x96, 0x53, 0x3b, 0x9c, 0x2c, 0x7f, 0x92, 0x40, 0x45, 0x2e, 0xf7, 0xf8, 0x82, 0xed, 0xec, 0x48, 0xd6, 0x81, 0x7c, 0xb6, 0x7f, 0xb4, 0x1d, 0xfa, 0x9e, 0xd5, 0xe1, 0x54, 0x78, 0xa5, 0x10, 0xe7, 0xfc, 0x7f, 0x49, 0xa4, 0xd0, 0x86, 0x38, 0x40, 0x6b, 0xfa, 0x83, 0x7f, 0xe7, 0x32, 0x57, 0x7f, 0xe8, 0xea, 0xdf, 0x06, 0xf0, 0xae, 0x81, 0x3d, 0x7f, 0x9f, 0x04, 0xeb, 0x8e, 0xa0, 0xf7, 0x73, 0xec, 0xc1, 0x9a, 0x90, 0xbe, 0xef, 0x77, 0x7f, 0x55, 0x64, 0xea, 0x61, 0xbc, 0x3a, 0x81, 0x04, 0x4c, 0x2c, 0xf2, 0xd1, 0x4f, 0x1c, 0x9c, 0xd8, 0x09, 0xce, 0x7f, 0xca, 0xef, 0xbd, 0x7f, 0x5b, 0x6a, 0x9d, 0xa7, 0x85, 0x7d, 0x8a, 0x48, 0x70, 0xe8, 0x8a, 0x6b, 0xb5, 0xdb, 0x7f, 0x22, 0xea, 0xd4, 0x51, 0x7f, 0x36, 0x41, 0x1a, 0x4a, 0x1a, 0x3f, 0x3f, 0xd0, 0xd0, 0x8c, 0x7f, 0x14, 0x7f, 0x39, 0xdc, 0xb4, 0x0f, 0x60, 0x3a, 0x7f, 0x42, 0x3f, 0xe7, 0x64, 0x72, 0xcb, 0x86, 0x7e, 0x5f, 0x7f, 0xbb, 0x70, 0x7f, 0xf2, 0x58, 0xb6, 0x4a, 0xda, 0x5a, 0x16, 0x69, 0xe8, 0x78, 0x76, 0xb6, 0xba, 0x86, 0x1b, 0xd3, 0x7f, 0x56, 0xa7, 0x36, 0x7f, 0x12, 0xf4, 0x9b, 0xf3, 0x32, 0x73, 0xcd, 0x73, 0x4f, 0xa8, 0x87, 0x2c, 0x76, 0x19, 0x81, 0x05, 0xe4, 0x29, 0x3d, 0x7f, 0xfd, 0xb6, 0xa1, 0xac, 0xe3, 0x7f, 0x58, 0x0b, 0xe5, 0x43, 0xb5, 0x20, 0xa9, 0x7f, 0x24, 0x71, 0xe5, 0xa7, 0xb6, 0x3a, 0xf2, 0x1d, 0x7b, 0x1b, 0xef, 0xae, 0x6a, 0xdc, 0x81, 0x31, 0xc5, 0xf3, 0xdd, 0xdd, 0x7a, 0xd4, 0x6e, 0xc2, 0x78, 0x0c, 0x7d, 0x17, 0x79, 0x84, 0x3e, 0x55, 0xc3, 0x7f, 0x8f, 0xdf, 0x08, 0xcd, 0xa8, 0x09, 0xa6, 0x3c, 0x81, 0x1f, 0xd3, 0xe2, 0x7a, 0xcf, 0x84, 0x82, 0x6e, 0x8f, 0xfb, 0x81, 0x23, 0x87, 0x7f, 0xca, 0x8b, 0x1d, 0xfb, 0x38, 0x7f, 0x58, 0x14, 0x17, 0x3e, 0xd4, 0xd0, 0x4a, 0xe8, 0xff, 0xff, 0x04, 0x00, 0x00, 0x00
};

const uint8_t drone_model_segment_3[] PROGMEM = {
    0x00, 0x06, 0x00, 0x00, 0xb5, 0xe5, 0x88, 0xc5, 0xa0, 0x29, 0x2f, 0xf1, 0xf2, 0xa7, 0x7f, 0x67, 0x7f, 0x41, 0x6f, 0x6b, 0x4c, 0x04, 0x48, 0x68, 0x21, 0xbc, 0x88, 0x66, 0x92, 0x6c, 0x7d, 0x00, 0x49, 0x1d, 0x59, 0xf8, 0xa3, 0x02, 0x7f, 0x60, 0xa1, 0x1c, 0xd9, 0xff, 0x6a, 0x16, 0x5e, 0xfc, 0x77, 0x40, 0xfb, 0xea, 0xf2, 0xe1, 0xed, 0x53, 0xed, 0x43, 0x5d, 0x3d, 0xf3, 0x7e, 0x84, 0xfa, 0xeb, 0x87, 0x4d, 0x90, 0xc6, 0x8f, 0x62, 0x29, 0x60, 0x02, 0xd4, 0x3f, 0x39, 0xe1, 0x0f, 0x4b, 0xa4, 0xec, 0x67, 0x56, 0x62, 0xa6, 0x75, 0x3b, 0xa1, 0x1a, 0x7f, 0x92, 0xc2, 0xad, 0x02, 0x75, 0x12, 0xc6, 0xfd, 0x10, 0x59, 0x9d, 0xa4, 0x2a, 0xc8, 0xa7, 0x81, 0x16, 0x73, 0xe8, 0xfb, 0xd2, 0xc7, 0xaf, 0x33, 0x38, 0x2e, 0xd1, 0xa3, 0xb1, 0x87, 0x0c, 0xe0, 0x8a, 0x30, 0x8c, 0x6c, 0x3e, 0x1a, 0x73, 0xa1, 0x49, 0x5c, 0x7f, 0xef, 0xe8, 0x12, 0xe9, 0x1f, 0xe3, 0xd1, 0xdd, 0x9b, 0x5e, 0x6c, 0xf8, 0xdb, 0xa3, 0x6e, 0x5f, 0x3b, 0xed, 0xdb, 0x91, 0x58, 0xf2, 0xce, 0x27, 0xcb, 0x52, 0x42, 0xb8, 0x38, 0x70, 0xb9, 0x1e, 0xec, 0x77, 0x2d, 0x7a, 0x49, 0xda, 0x34, 0xcc, 0x03, 0xbe, 0x69, 0x08, 0xff, 0x38, 0xa8, 0x3a, 0xbf, 0x81, 0x04, 0x4e, 0xa9, 0x31, 0x87, 0x5f, 0xe5, 0x67, 0x53, 0x76, 0x0f, 0xd6, 0xc0, 0x9a, 0x81, 0x85, 0x79, 0x17, 0x55, 0x66, 0x06, 0x45, 0x54, 0x51, 0x14, 0xa9, 0x4f, 0x1f, 0xcc, 0x58, 0x00, 0xf7, 0x6b, 0x70, 0x15, 0xbc, 0xbb, 0x4f, 0x54, 0xb1, 0xe1, 0x1c, 0x54, 0x13, 0x34, 0x40, 0x36, 0xcd, 0x8d, 0xa4, 0x47, 0x10, 0x0d, 0x66, 0xa5, 0x5a, 0x0c, 0x08, 0xbd, 0xf6, 0xe6, 0x4e, 0x48, 0x81, 0xa4, 0x6a, 0xf0, 0xfd, 0xe2, 0xfc, 0x95, 0x75, 0xd1, 0x53, 0x01, 0xd2, 0xe5, 0xdc, 0x43, 0xa6, 0x43, 0x0c, 0xa6, 0x03, 0x5d, 0xbf, 0x54, 0x15, 0x53, 0xce, 0xe8, 0x53, 0x23, 0x3d, 0xf1, 0x70, 0x81, 0x7b, 0x4d, 0xcf, 0xd8, 0xe4, 0x67, 0xe3, 0x57, 0xcf, 0xcb, 0x87, 0x05, 0xf2, 0xaf, 0x1a, 0xbf, 0x61, 0x19, 0x1f, 0x67, 0x77, 0xb7, 0x0f, 0xe3, 0x67, 0x25, 0x9b, 0x87, 0x4c, 0xe8, 0xfc, 0xac, 0x11, 0x5f, 0x78, 0xb8, 0x7f, 0x10, 0x3d, 0x97, 0xb1, 0x55, 0x7a, 0xf9, 0x28, 0x56, 0x65, 0x8f, 0x54, 0x73, 0x01, 0xc7, 0xd7, 0xb3, 0xf3, 0x5a, 0x81, 0x9e, 0xef, 0x2f, 0xcb, 0xf3, 0x2c, 0xcf, 0x57, 0x95, 0x4a, 0x96, 0xec, 0xcb, 0x3b, 0x54, 0xa1, 0x0e, 0x12, 0x4c, 0x3a, 0xdd, 0xcb, 0xd1, 0xa6, 0x8f, 0x7e, 0x79, 0xbe, 0xf4, 0x0a, 0x7f, 0x57, 0xbe, 0xeb, 0xbb, 0xb9, 0xea, 0x78, 0xe2, 0xe2, 0x61, 0x90, 0xbc, 0x18, 0xea, 0xff, 0x29, 0x38, 0x89, 0x5d, 0xae, 0x85, 0xfc, 0x1a, 0xc5, 0x52, 0x81, 0x63, 0xb8, 0x18, 0x95, 0xde, 0x19, 0xeb, 0x18, 0x0e, 0x33, 0x5d, 0x59, 0x96, 0x64, 0x54, 0x56, 0x76, 0xb5, 0x34, 0x99, 0xff, 0xe6, 0x17, 0xf0, 0x4b, 0x4b, 0x10, 0x2a, 0x1c, 0xc8, 0x74, 0x3d, 0x37, 0x0d, 0xcf, 0xe1, 0x81, 0x27, 0xf1, 0xdb, 0x81, 0x9d, 0x44, 0x7e, 0xf2, 0xf2, 0x81, 0xbb, 0xcf, 0xb0, 0xf7, 0x37, 0x51, 0x1c, 0x19, 0x14, 0x64, 0x71, 0x7b, 0xa2, 0xda, 0xc4, 0x4e, 0xe8, 0xdd, 0xd6, 0xf5, 0x1e, 0x76, 0x15, 0xf4, 0x1b, 0x95, 0x9b, 0xd1, 0x92, 0xbb, 0x81, 0xf6, 0x03, 0x63, 0x9c, 0xab, 0x63, 0x77, 0xfa, 0xb2, 0x64, 0x76, 0x19, 0xaf, 0x28, 0xc6, 0x7f, 0xfc, 0x97, 0xdb, 0xa4, 0x4b, 0x02, 0x3a, 0xdb, 0x0b, 0x72, 0x11, 0xc0, 0x1b, 0xd8, 0xce, 0xef, 0xf7, 0xaa, 0x0e, 0x6e, 0x6b, 0x8f, 0x3d, 0xfd, 0x7f, 0xfb, 0x26, 0x42, 0x8a, 0x55, 0x74, 0xad, 0xa4, 0xbe, 0xa0, 0x3f, 0xc5, 0x37, 0xe7, 0x81, 0xbf, 0xfd, 0xbd, 0x4d, 0xef, 0x9a, 0x1a, 0x6b, 0x32, 0xbe, 0x87, 0xfc, 0xde, 0x59, 0xff, 0xae, 0xc7, 0xca, 0x14, 0xe4, 0x69, 0x90, 0x58, 0xd7, 0x06, 0x56, 0x4d, 0xef, 0xc3, 0x3d, 0x03, 0x6d, 0x81, 0xc3, 0xe8, 0xf2, 0x81, 0x04, 0x2c, 0x78, 0x11, 0xf1, 0x9b, 0x9d, 0x78, 0x1b, 0xce, 0x09, 0x1b, 0x1f, 0x7d, 0x8d, 0xf8, 0xc5, 0xbb, 0xf0, 0xe0, 0x45, 0x77, 0xb4, 0x17, 0x2e, 0x32, 0xf5, 0x6d, 0xe5, 0xd2, 0x6c, 0xae, 0x58, 0x7a, 0xb5, 0x7f, 0x00, 0x1d, 0xd4, 0x3a, 0x6d, 0x15, 0x23, 0xa9, 0x49, 0x9c, 0x5f, 0xbf, 0x56, 0x34, 0x17, 0x56, 0x7f, 0xb1, 0x0b, 0x82, 0x3b, 0xf9, 0xdc, 0x39, 0x1e, 0x84, 0xc0, 0xe2, 0x1b, 0x4d, 0x9a, 0xb9, 0xa6, 0x45, 0x67, 0x57, 0x25, 0x97, 0x02, 0x98, 0x3f, 0x59, 0x83, 0x26, 0x3c, 0xfb, 0x08, 0x9e, 0xdb, 0x97, 0x61, 0x4e, 0x81, 0xc8, 0x96, 0xbe, 0xdd, 0xbd, 0xc7, 0xd7, 0x16, 0x2f, 0x71, 0xa5, 0xed, 0xe0, 0xbb, 0xb1, 0xd4, 0xcc, 0xbf, 0x55, 0x72, 0x43, 0x47, 0x3b, 0x9e, 0xae, 0x65, 0xc7, 0xe7, 0x49, 0xb4, 0xcb, 0xa9, 0x97, 0x70, 0xf3, 0x19, 0x24, 0x7d, 0x2d, 0xb0, 0xe8, 0x81, 0x7c, 0x0a, 0xc7, 0x38, 0xfc, 0x45, 0x57, 0x83, 0x21, 0xf9, 0xb3, 0x5e, 0x3c, 0x4b, 0xfa, 0x7f, 0xd0, 0x33, 0x48, 0x97, 0x35, 0xaa, 0x42, 0x41, 0x57, 0x78, 0xe5, 0xa6, 0x8e, 0x0e, 0xdb, 0x08, 0xca, 0xab, 0xdd, 0xfc, 0xbb, 0xe8, 0x2c, 0xba, 0xf1, 0x98, 0xde, 0xf6, 0xb5, 0x35, 0x4f, 0x04, 0x2b, 0xf9, 0xc2, 0xe6, 0xae, 0xfa, 0x47, 0x1a, 0xa8, 0xda, 0xaa, 0x91, 0x1d, 0x3f, 0x33, 0x6d, 0x7f, 0x29, 0xb8, 0xc3, 0x54, 0x29, 0x0a, 0xbf, 0x4b, 0x9c, 0x57, 0xf8, 0x84, 0xfa, 0x77, 0xce, 0xa7, 0xa3, 0x2e, 0x83, 0x92, 0x50, 0x7f, 0x9f, 0xdd, 0xb0, 0xbe, 0xf3, 0x37, 0x9c, 0x88, 0xb7, 0x1b, 0xd1, 0x49, 0x7e, 0xc1, 0x03, 0x2e, 0x44, 0x10, 0xec, 0xd0, 0x0f, 0x93, 0x82, 0x81, 0xdb, 0x12, 0x36, 0x6a, 0xbb, 0x71, 0x59, 0x68, 0x40, 0x53, 0x15, 0x2f, 0xfe, 0xaa, 0xd3, 0x25, 0x1c, 0xfe, 0x6e, 0xab, 0x26, 0x36, 0x9c, 0x67, 0xf1, 0x44, 0x22, 0x05, 0x8c, 0x1c, 0x5d, 0x07, 0xd8, 0xea, 0xcf, 0x35, 0x0d, 0xea, 0x36, 0x69, 0xf8, 0x4b, 0x5a, 0x67, 0x68, 0xd1, 0xaf, 0x05, 0x94, 0x7f, 0x28, 0x54, 0xc8, 0x35, 0xf9, 0x11, 0x1a, 0x4c, 0xb8, 0x31, 0x5c, 0xdb, 0x16, 0x57, 0x44, 0x62, 0x91, 0xf9, 0xb7, 0xc1, 0x71, 0xa3, 0x81, 0xb9, 0x14, 0x7a, 0xc1, 0x50, 0xcf, 0xe8, 0xfc, 0xcf, 0xb4, 0x8b, 0xd8, 0x6a, 0x9c, 0x19, 0x85, 0x55, 0xe7, 0xb8, 0x10, 0xf2, 0x6c, 0x87, 0xff, 0x81, 0x42, 0x79, 0x6e, 0x88, 0x30, 0x0f, 0x7d, 0xbd, 0x6f, 0x3d, 0x48, 0x8a, 0xe1, 0xa2, 0x0e, 0x89, 0xfd, 0xe3, 0x2e, 0xac, 0xcd, 0xf0, 0x2e, 0x4a, 0x73, 0x62, 0x4f, 0xab, 0xe2, 0xb2, 0xc5, 0xe9, 0xc5, 0xc0, 0x0b, 0x14, 0xd0, 0xd7, 0x24, 0x57, 0x81, 0xef, 0xb6, 0xe7, 0x6f, 0x89, 0xbc, 0x54, 0x9a, 0x86, 0x4b, 0xd6, 0x5b, 0x9e, 0x94, 0xa0, 0x31, 0x2a, 0x27, 0x14, 0x23, 0x41, 0x12, 0x54, 0x2a, 0x39, 0xfc, 0x4a, 0x0c, 0xb3, 0x39, 0x8e, 0x49, 0x83, 0xaa, 0xdd, 0x28, 0x52, 0x7b, 0x81, 0x0d, 0x9a, 0x9d, 0x86, 0x7e, 0x14, 0xe5, 0x58, 0xc9, 0xed, 0x57, 0x6f, 0x07, 0x61, 0x72, 0x6e, 0x66, 0xaa, 0xc3, 0x7a, 0x1f, 0x61, 0x21, 0x01, 0xd5, 0x40, 0xf5, 0x5f, 0x7f, 0x65, 0x3c, 0xd1, 0xdf, 0xae, 0x53, 0x4b, 0x7b, 0x1a
};

const uint8_t drone_model_segment_4[] PROGMEM = {
    0x15, 0xf1, 0x6b, 0x23, 0xa8, 0xb5, 0x38, 0xe2, 0x8e, 0xec, 0x39, 0xe4, 0xf6, 0x63, 0xdc, 0x0b, 0x67, 0x4f, 0x04, 0xaf, 0x7f, 0x61, 0xe0, 0xca, 0x58, 0xe9, 0xc3, 0x1c, 0x38, 0x4e, 0x62, 0xb4, 0x22, 0x7b, 0x01, 0xad, 0xc7, 0xe6, 0x6d, 0x58, 0x15, 0xb2, 0x2c, 0x9a, 0x3f, 0xd6, 0xb2, 0x31, 0x11, 0xb2, 0xa0, 0xa8, 0x50, 0xb9, 0x19, 0x44, 0xf5, 0x99, 0x69, 0x42, 0xbe, 0xdc, 0xcf, 0x7a, 0x81, 0xb4, 0x2d, 0x94, 0x52, 0x16, 0x26, 0x6e, 0xbe, 0x98, 0x18, 0x58, 0x13, 0x33, 0x7b, 0x8e, 0x53, 0x7f, 0xd5, 0x58, 0xd0, 0x42, 0xe2, 0xa1, 0x18, 0x36, 0x1c, 0x33, 0x5c, 0xe0, 0xa2, 0xd3, 0x97, 0xef, 0xb8, 0xc1, 0xcf, 0xc3, 0x81, 0x7d, 0xa0, 0x42, 0x0e, 0xb7, 0x60, 0x2b, 0xde, 0xd5, 0x3d, 0x65, 0x5e, 0x7f, 0x0d, 0xfe, 0xfa, 0xb4, 0xe1, 0x71, 0x0e, 0x10, 0x29, 0xbf, 0xe4, 0x65, 0xd5, 0x38, 0x7c, 0xa2, 0x8e, 0x07, 0x0e, 0xeb, 0x2f, 0x04, 0x0f, 0x0a, 0x26, 0x9d, 0x8d, 0xb6, 0xf5, 0x10, 0x0b, 0x07, 0x1d, 0xf6, 0x51, 0xae, 0x04, 0xe4, 0xd9, 0x14, 0x2a, 0xcf, 0x49, 0xcd, 0x81, 0x56, 0x6e, 0x41, 0xdf, 0xf8, 0xb3, 0xb0, 0xf3, 0x7e, 0xe7, 0xbc, 0xb2, 0xe5, 0x7a, 0x38, 0x02, 0xc9, 0xb9, 0xa4, 0x48, 0xf0, 0x51, 0x41, 0x0d, 0x78, 0x3f, 0x8f, 0x7f, 0x13, 0xec, 0x57, 0x7c, 0x4e, 0x8f, 0x28, 0x5b, 0xbf, 0xcc, 0x22, 0x9e, 0x0d, 0x9d, 0x86, 0x5c, 0x3e, 0xc4, 0xd6, 0x0a, 0x2a, 0x62, 0x4a, 0x85, 0x05, 0xfb, 0x04, 0x2b, 0x4e, 0x24, 0x4f, 0x43, 0x64, 0xf6, 0x7a, 0xdd, 0x7f, 0x79, 0xc5, 0xe8, 0x96, 0x53, 0xe2, 0xb4, 0x55, 0x4c, 0x81, 0x54, 0x5d, 0x1c, 0xbc, 0x39, 0x7f, 0xcb, 0xee, 0xf9, 0x75, 0xfb, 0x13, 0x93, 0x78, 0xd0, 0xb4, 0x7e, 0x72, 0x5b, 0x9d, 0x01, 0xfb, 0x13, 0x71, 0xc8, 0x14, 0xb7, 0xec, 0x25, 0xb8, 0x81, 0x10, 0x3b, 0xbb, 0x31, 0xe4, 0xf2, 0xa0, 0x8d, 0xcf, 0xfb, 0xc9, 0x93, 0x61, 0x10, 0xd1, 0x62, 0x85, 0x89, 0x96, 0x8a, 0x33, 0xce, 0x03, 0x96, 0x91, 0xcd, 0xa4, 0xb1, 0x2b, 0x35, 0xd5, 0x1f, 0x88, 0xf6, 0x05, 0x37, 0x32, 0x5f, 0x81, 0x47, 0xc6, 0xe2, 0x1e, 0xc7, 0xc3, 0x42, 0x79, 0xa7, 0xa9, 0xfa, 0x31, 0x0b, 0x52, 0x96, 0x59, 0x51, 0x81, 0x68, 0x91, 0xf6, 0xc1, 0x27, 0xaa, 0xce, 0x72, 0xf2, 0x8b, 0x7e, 0x24, 0xbb, 0x89, 0x6d, 0x7c, 0xe2, 0x73, 0x10, 0xa8, 0x7f, 0xa6, 0xba, 0x38, 0x20, 0xb9, 0x9d, 0x1b, 0x84, 0x6c, 0xa3, 0x33, 0xe1, 0x3f, 0x79, 0xe5, 0xe8, 0x81, 0x30, 0x33, 0xef, 0x28, 0x92, 0xb0, 0xd9, 0x41, 0xaf, 0x78, 0x4e, 0x20, 0x3b, 0xcf, 0x0e, 0x42, 0x70, 0xb7, 0xf6, 0x0f, 0xda, 0xe7, 0xaf, 0x46, 0x24, 0xc1, 0xb7, 0x10, 0x42, 0x7d, 0xb5, 0xb4, 0xc0, 0x28, 0x84, 0x4f, 0x7d, 0x62, 0x06, 0x81, 0xa0, 0x42, 0xeb, 0xb6, 0x90, 0x0b, 0xfe, 0xee, 0xf3, 0xa7, 0x15, 0x94, 0xc9, 0x85, 0xec, 0xe8, 0x68, 0xe8, 0x18, 0x7f, 0x77, 0x13, 0x28, 0xa4, 0x52, 0x55, 0xb7, 0xaa, 0x2c, 0xcb, 0xe5, 0x1e, 0x95, 0x90, 0x87, 0x09, 0x44, 0x69, 0xf9, 0x37, 0x77, 0xff, 0x98, 0x72, 0x0c, 0x09, 0xef, 0x76, 0xf4, 0x0a, 0x99, 0xd7, 0x4c, 0xc7, 0x6c, 0x57, 0x9f, 0x57, 0x35, 0xe5, 0x2f, 0xc7, 0xa7, 0xc2, 0xdf, 0x2b, 0x2b, 0xf1, 0x01, 0xb8, 0x78, 0x57, 0xfa, 0xe2, 0x60, 0x10, 0x93, 0xe7, 0xa7, 0x82, 0x7f, 0xce, 0x74, 0x49, 0x00, 0x4e, 0x1c, 0x34, 0x45, 0x78, 0x0f, 0xa0, 0xc8, 0xc9, 0xcb, 0x7f, 0x93, 0x2d, 0x00, 0x85, 0xe5, 0x8b, 0x87, 0x1a, 0x47, 0x14, 0x26, 0x3d, 0x1d, 0xf9, 0x35, 0x25, 0x1d, 0x46, 0x28, 0xba, 0xff, 0xff, 0x5a, 0xee, 0xff, 0xff, 0x04, 0x00, 0x00, 0x00, 0xc0, 0x00, 0x00, 0x00, 0x00, 0x00, 0x00, 0x00, 0x00, 0x00, 0x00, 0x00, 0x00, 0x00, 0x00, 0x00, 0x00, 0x00, 0x00, 0x00, 0x00, 0x00, 0x00, 0x00, 0x00, 0x00, 0x00, 0x00, 0x00, 0x00, 0x00, 0x00, 0x00, 0x00, 0x00, 0x00, 0x00, 0x00, 0x00, 0x00, 0x00, 0x00, 0x00, 0x00, 0x00, 0x00, 0x00, 0x00, 0x00, 0x00, 0x00, 0x00, 0x00, 0x00, 0x00, 0x00, 0x00, 0x00, 0x00, 0x00, 0x00, 0x00, 0x00, 0x00, 0x00, 0x00, 0x00, 0x00, 0x00, 0x00, 0x00, 0x00, 0x00, 0x00, 0x00, 0x00, 0x00, 0x00, 0x00, 0x00, 0x00, 0x00, 0x00, 0x00, 0x00, 0x00, 0x00, 0x00, 0x00, 0x00, 0x00, 0x00, 0x00, 0x00, 0x00, 0x00, 0x00, 0x00, 0x00, 0x00, 0x00, 0x00, 0x00, 0x00, 0x00, 0x00, 0x00, 0x00, 0x00, 0x00, 0x00, 0x00, 0x00, 0x00, 0x00, 0x00, 0x00, 0x00, 0x00, 0x00, 0x00, 0x00, 0x00, 0x00, 0x00, 0x00, 0x00, 0x00, 0x00, 0x00, 0x00, 0x00, 0x00, 0x00, 0x00, 0x00, 0x00, 0x00, 0x00, 0x00, 0x00, 0x00, 0x00, 0x00, 0x00, 0x00, 0x00, 0x00, 0x00, 0x00, 0x00, 0x00, 0x00, 0x00, 0x00, 0x00, 0x00, 0x00, 0x00, 0x00, 0x00, 0x00, 0x00, 0x00, 0x00, 0x00, 0x00, 0x00, 0x00, 0x00, 0x00, 0x00, 0x00, 0x00, 0x00, 0x00, 0x00, 0x00, 0x00, 0x00, 0x00, 0x00, 0x00, 0x00, 0x00, 0x00, 0x00, 0x00, 0x00, 0x00, 0x00, 0x00, 0x00, 0x00, 0x00, 0x00, 0x26, 0xef, 0xff, 0xff, 0x04, 0x00, 0x00, 0x00, 0xb0, 0x01, 0x00, 0x00, 0xdd, 0x72, 0x89, 0x9c, 0xd8, 0x0d, 0x91, 0x64, 0x3e, 0x2c, 0x47, 0xb3, 0x16, 0x3b, 0x0e, 0x89, 0xa8, 0x2c, 0x3d, 0x4a, 0x6d, 0x19, 0x25, 0xf6, 0x7e, 0x7f, 0xb9, 0x9f, 0x28, 0xcd, 0x15, 0x09, 0xa3, 0x48, 0x31, 0xab, 0x76, 0x72, 0x5f, 0x82, 0x67, 0xb2, 0x7f, 0x68, 0x44, 0xf2, 0x0d, 0x90, 0x7d, 0x9a, 0x7f, 0xb4, 0x83, 0x07, 0x65, 0x73, 0x92, 0x7f, 0xc2, 0x3a, 0x0b, 0xcc, 0x81, 0x81, 0x81, 0x09, 0xca, 0x42, 0x81, 0x46, 0x81, 0x87, 0x76, 0xf8, 0x7f, 0xe6, 0x7d, 0x18, 0x03, 0x9e, 0xd5, 0xa6, 0xa5, 0x1e, 0x30, 0x86, 0x7a, 0xd4, 0x7f, 0xfc, 0x28, 0xc0, 0xb5, 0xc8, 0xef, 0x7f, 0xfc, 0x87, 0x2d, 0xbe, 0xbc, 0x9e, 0xa2, 0x5a, 0xd1, 0x56, 0x81, 0x33, 0xd1, 0xd6, 0x93, 0xb7, 0xe8, 0xdf, 0xb0, 0x81, 0x64, 0x0a, 0xbd, 0xa9, 0xe3, 0x2f, 0x71, 0x7e, 0x43, 0x88, 0x1e, 0xa9, 0xc1, 0x07, 0x04, 0x58, 0x98, 0x02, 0x88, 0x6f, 0xc8, 0xed, 0xce, 0xda, 0xdf, 0x70, 0xd0, 0x60, 0x81, 0x20, 0x2f, 0xf9, 0x4e, 0xf6, 0xa4, 0x83, 0x7f, 0x8d, 0x22, 0x7f, 0x54, 0x81, 0x55, 0xb6, 0x99, 0x12, 0x38, 0x51, 0xf6, 0xe5, 0x07, 0x33, 0xc7, 0x78, 0xb2, 0x01, 0xd0, 0x5d, 0x81, 0xc9, 0x22, 0xc7, 0xb4, 0xab, 0xbe, 0x6f, 0x7f, 0x24, 0x71, 0x81, 0xb9, 0xca, 0x42, 0x6a, 0x61, 0xb9, 0x31, 0xad, 0x16, 0x2f, 0xee, 0x5c, 0xd4, 0x99, 0x33, 0xa9, 0x1f, 0x4f, 0x7b, 0x1d, 0x6a, 0x63, 0x31, 0x55, 0x32, 0x42, 0xeb, 0xed, 0x81, 0x7f, 0xba, 0x98, 0x5a, 0x23, 0xc8, 0x81, 0xd2, 0x45, 0xe6, 0xae, 0xce, 0x2c, 0x51, 0x81, 0xb8, 0x81, 0x1a, 0x77, 0x0b, 0x62, 0x5b, 0x2d, 0x4a, 0x81, 0x1a, 0xd9, 0x67, 0x4a, 0x8a, 0x00, 0x87, 0x7f, 0xc7, 0xe3, 0x18, 0x6a, 0xbd, 0xad, 0xe8, 0xd1, 0xfa, 0x37, 0xce, 0x8f, 0xef, 0x7f, 0x22, 0xee, 0xdb, 0x4e, 0x4d, 0x81, 0x1c, 0xe7, 0x8b, 0x7f, 0x7f, 0x7f, 0x29, 0x7f, 0x27, 0x4f, 0x31, 0x12, 0xd8, 0xdf, 0x5a, 0x3c, 0x7f, 0x7f, 0x27, 0xc3
};

const uint8_t drone_model_segment_5[] PROGMEM = {
    0x6b, 0x81, 0x36, 0x9b, 0xda, 0xb8, 0x68, 0x74, 0x17, 0x62, 0x85, 0xff, 0xfc, 0x70, 0xf1, 0x7f, 0x9e, 0xc7, 0x91, 0xa2, 0x06, 0x12, 0xe7, 0xed, 0xe0, 0x3f, 0x44, 0xa1, 0x7f, 0x05, 0xd0, 0xb6, 0x4f, 0xb5, 0x81, 0xda, 0x7f, 0xb8, 0x0d, 0x97, 0xd7, 0x15, 0xaa, 0x7f, 0x9b, 0x6f, 0x31, 0x0a, 0xd6, 0x62, 0x25, 0x81, 0x7f, 0x81, 0x7f, 0x2b, 0xd7, 0xd9, 0xca, 0xcc, 0x81, 0x4b, 0xa1, 0x83, 0x05, 0xc1, 0x57, 0xb4, 0x56, 0xd7, 0x3d, 0x7e, 0x43, 0x23, 0xa5, 0x4a, 0xc8, 0x2b, 0xda, 0xa8, 0xf0, 0x50, 0xec, 0x2c, 0xd5, 0xf6, 0xa0, 0xca, 0xea, 0xf0, 0x20, 0x8c, 0xae, 0x69, 0x4c, 0x20, 0xec, 0xce, 0x04, 0xf4, 0x84, 0xa0, 0xb9, 0xe4, 0x11, 0x84, 0xb3, 0x20, 0xfd, 0xda, 0xed, 0x32, 0x52, 0x7f, 0x81, 0xb8, 0xe0, 0xee, 0xdd, 0x27, 0x81, 0x5c, 0x7d, 0x83, 0xe0, 0x39, 0x54, 0x39, 0xea, 0x45, 0xa2, 0xa5, 0x59, 0x08, 0x98, 0xed, 0x92, 0xec, 0xa7, 0x00, 0xe6, 0x42, 0x7f, 0x22, 0xe2, 0xf0, 0xff, 0xff, 0x04, 0x00, 0x00, 0x00, 0x00, 0x0c, 0x00, 0x00, 0xf8, 0x8a, 0xfb, 0x00, 0xc5, 0x0b, 0x10, 0x05, 0x61, 0x3b, 0x77, 0x23, 0xdd, 0x37, 0xb8, 0xc5, 0x4f, 0x43, 0x1a, 0x6b, 0x52, 0x99, 0xee, 0x41, 0xb6, 0x33, 0x58, 0xc7, 0x01, 0x3b, 0x03, 0x0d, 0xc2, 0x91, 0x74, 0x9a, 0x3d, 0x93, 0xd0, 0x62, 0xe1, 0x51, 0x3e, 0x65, 0x1e, 0x79, 0x81, 0x6f, 0x63, 0x04, 0xc5, 0x2f, 0x56, 0x5c, 0xfd, 0x47, 0x06, 0xa8, 0x0b, 0x24, 0xf4, 0x77, 0x73, 0x70, 0x4a, 0x26, 0x86, 0xb9, 0x35, 0x1a, 0xf8, 0x09, 0x3b, 0xb6, 0x2b, 0x76, 0xde, 0xa0, 0xc5, 0xee, 0xa3, 0x4c, 0x74, 0x7f, 0xa0, 0xd2, 0xbf, 0x67, 0xe0, 0x3f, 0xae, 0x6e, 0x07, 0x0e, 0x0f, 0x99, 0x19, 0x66, 0xc2, 0x71, 0x94, 0x98, 0xb1, 0x62, 0x73, 0x71, 0x83, 0x3e, 0x54, 0x2e, 0x2e, 0x9a, 0xc7, 0xef, 0x50, 0xa2, 0x4d, 0xeb, 0x16, 0xfe, 0xee, 0x7b, 0x1c, 0x31, 0xe8, 0x63, 0x6f, 0xe9, 0xe2, 0xc5, 0x65, 0x01, 0x87, 0xf7, 0x36, 0x2d, 0xcb, 0x8e, 0x7f, 0xc0, 0x19, 0xe2, 0xe5, 0x5e, 0x14, 0xff, 0xdd, 0xe8, 0xf8, 0x05, 0xa0, 0x11, 0xa2, 0xa8, 0x14, 0x07, 0x90, 0x51, 0x79, 0x5e, 0xf3, 0xf7, 0x54, 0x39, 0x19, 0x7f, 0x98, 0x05, 0x94, 0x14, 0x9a, 0x4e, 0x1d, 0xa7, 0x9e, 0xe0, 0xe7, 0xb8, 0xd3, 0x2c, 0xf7, 0xe9, 0x1c, 0x2e, 0x10, 0x1e, 0x6e, 0x78, 0x08, 0x65, 0x18, 0x60, 0xc7, 0x3e, 0x8a, 0x61, 0xb1, 0x45, 0x28, 0xef, 0xf2, 0xa6, 0xc6, 0xea, 0x9f, 0x25, 0xd2, 0x93, 0x74, 0x9a, 0x44, 0x44, 0x20, 0xc6, 0x9d, 0xa1, 0x4d, 0x7f, 0x2f, 0xef, 0x7e, 0x67, 0x06, 0x22, 0xaa, 0xcb, 0x8c, 0x47, 0x02, 0x7b, 0x70, 0x63, 0xd3, 0xa8, 0x05, 0xf0, 0x17, 0xbb, 0x51, 0xc6, 0xa5, 0x51, 0x3e, 0x39, 0xa0, 0x8a, 0x95, 0x73, 0xdd, 0xac, 0x48, 0xcc, 0xb0, 0x6a, 0x09, 0xbd, 0xe9, 0x1c, 0x9e, 0x20, 0x3f, 0xcf, 0xd0, 0xda, 0x82, 0x32, 0x30, 0xbe, 0x29, 0x16, 0xb5, 0xba, 0x67, 0x20, 0xa3, 0x3f, 0xcf, 0x25, 0x62, 0x6d, 0x31, 0xf6, 0x13, 0x9d, 0x43, 0xb3, 0x7f, 0x32, 0x81, 0x52, 0x36, 0x30, 0x34, 0x77, 0x7f, 0x94, 0x5a, 0x54, 0x8f, 0x22, 0x9b, 0xbf, 0xbb, 0x4e, 0x87, 0x24, 0x4b, 0x8c, 0x56, 0x5d, 0xd7, 0xe4, 0x33, 0x43, 0x4d, 0x39, 0xc6, 0xa5, 0xf4, 0x94, 0x70, 0xa1, 0xe4, 0x5c, 0x16, 0x14, 0x95, 0xde, 0x13, 0x03, 0x90, 0xdb, 0x7a, 0x8d, 0x98, 0x71, 0xf4, 0xae, 0x22, 0x60, 0x0d, 0xbf, 0x76, 0xe3, 0xce, 0xc4, 0x07, 0x4a, 0x8a, 0x7c, 0x95, 0xfa, 0xce, 0x4f, 0xf3, 0x6d, 0x27, 0x9c, 0xea, 0xbf, 0x8d, 0xf1, 0x67, 0xa5, 0x9f, 0x3c, 0x6d, 0x71, 0x04, 0x8b, 0x34, 0x0b, 0xa6, 0x31, 0xb3, 0x7f, 0x77, 0xf8, 0x36, 0x7e, 0x57, 0x78, 0xef, 0xd6, 0x91, 0xaa, 0x75, 0x65, 0x0d, 0x13, 0x4b, 0xb6, 0xe4, 0xae, 0x6c, 0x81, 0xc7, 0xdd, 0xbb, 0xc9, 0xcc, 0x6e, 0xbf, 0x96, 0xb8, 0xda, 0x4d, 0xe7, 0x5a, 0x5f, 0x6e, 0xd5, 0x4c, 0x17, 0x5d, 0xfa, 0x62, 0xff, 0xdf, 0x47, 0xd9, 0x0e, 0x47, 0x35, 0x8a, 0x8c, 0x27, 0xfc, 0xc6, 0x3f, 0x62, 0xc9, 0x3c, 0x1f, 0x07, 0x52, 0x42, 0x4f, 0xb2, 0x5f, 0x3f, 0xc1, 0x53, 0x73, 0x0b, 0x65, 0x2a, 0x46, 0x38, 0x0c, 0xc3, 0x45, 0x3a, 0x5f, 0xfc, 0x35, 0x2b, 0x22, 0xdc, 0x46, 0xa6, 0x7d, 0xcd, 0x52, 0x38, 0x4e, 0x31, 0xc2, 0xe4, 0xb6, 0x47, 0xc5, 0x56, 0x30, 0x53, 0xc8, 0x14, 0x4e, 0x7a, 0x81, 0xb8, 0xaa, 0xfd, 0x28, 0x98, 0xb4, 0xd8, 0x4d, 0x86, 0x73, 0x14, 0x7e, 0x34, 0xc4, 0x20, 0xc3, 0x6d, 0xf7, 0xf8, 0xa2, 0x21, 0xab, 0x7b, 0xea, 0x81, 0x79, 0x37, 0x05, 0x2f, 0x6b, 0x4f, 0xb6, 0x93, 0x1b, 0x0a, 0xa7, 0x2d, 0xa0, 0xad, 0x95, 0x4e, 0xb8, 0x71, 0xaf, 0xec, 0x60, 0xfe, 0x98, 0xd3, 0x05, 0x81, 0xbf, 0x8d, 0x82, 0x76, 0x22, 0xbb, 0x39, 0x8a, 0x6d, 0xff, 0x1a, 0x62, 0xf0, 0x2c, 0xc5, 0x36, 0x71, 0xc6, 0xf8, 0x99, 0xb7, 0x47, 0xf1, 0x4e, 0xf8, 0x9e, 0x20, 0x89, 0x17, 0x21, 0x22, 0x3c, 0x58, 0x07, 0x9e, 0xa1, 0xf3, 0xcd, 0x29, 0x0f, 0x31, 0x86, 0x93, 0x11, 0xc1, 0x84, 0xde, 0x02, 0x57, 0x60, 0x41, 0x6b, 0xc1, 0x5f, 0x69, 0x54, 0x70, 0x53, 0xf9, 0xba, 0xfb, 0x83, 0x44, 0xc6, 0xbe, 0xb7, 0xef, 0xec, 0xdb, 0x30, 0xdd, 0x91, 0xd7, 0x9a, 0xbe, 0x72, 0x3a, 0xb5, 0x29, 0x81, 0x1a, 0x5e, 0x64, 0x04, 0xaa, 0x9a, 0xe7, 0xda, 0xd5, 0x41, 0x03, 0x7b, 0x20, 0xb2, 0xcf, 0x7b, 0x03, 0x1f, 0xb3, 0x53, 0xf7, 0xc3, 0x81, 0xc6, 0xaa, 0xc3, 0x1b, 0x24, 0xa0, 0x71, 0xa3, 0xc4, 0xcb, 0xbc, 0xfa, 0x30, 0xf2, 0x4c, 0x99, 0xda, 0xb0, 0xe0, 0x8d, 0x5f, 0x98, 0x94, 0x06, 0x81, 0x9f, 0x3a, 0xa7, 0xe5, 0x75, 0x81, 0x15, 0x07, 0xde, 0xc0, 0xf6, 0x01, 0xbd, 0x6b, 0xe8, 0x0f, 0x57, 0xf4, 0x11, 0xbc, 0xce, 0x4f, 0xb6, 0xbc, 0x88, 0x4b, 0x1f, 0x46, 0x0d, 0x81, 0xfa, 0x8b, 0x99, 0x05, 0x2d, 0x54, 0xfd, 0x77, 0x2c, 0xc9, 0xa7, 0xee, 0x6a, 0x81, 0xb1, 0x00, 0x6b, 0xa8, 0xf5, 0x79, 0xe3, 0x11, 0xc0, 0xc3, 0xd6, 0xe7, 0x42, 0xec, 0x29, 0xcf, 0x61, 0xeb, 0xba, 0x4b, 0x9d, 0xdc, 0x39, 0x69, 0x9a, 0xe7, 0xfe, 0xc7, 0x47, 0xc6, 0x7b, 0xc4, 0x81, 0x89, 0x88, 0x8c, 0x1c, 0x61, 0x62, 0xe2, 0x82, 0x59, 0xc9, 0x72, 0x72, 0xb5, 0x4c, 0x16, 0x82, 0xb6, 0xb8, 0x5b, 0x1f, 0x17, 0xc0, 0x29, 0x51, 0xda, 0xed, 0x0b, 0x6b, 0x61, 0x1b, 0xd2, 0x7f, 0xf6, 0x05, 0x1e, 0x5b, 0x2d, 0x2c, 0xed, 0x7d, 0x21, 0xe0, 0x76, 0x97, 0xac, 0x84, 0x17, 0x07, 0xcc, 0xd6, 0x97, 0x78, 0x86, 0x9e, 0x4e, 0x3b, 0xc7, 0xe8, 0x5c, 0xba, 0x7b, 0x2d, 0x2e, 0xf4, 0x20, 0xaa, 0x86, 0x39, 0xf6, 0xfd, 0x53, 0xdf, 0x81, 0x3a, 0x9e, 0x89, 0x89, 0x39, 0x55, 0x3c, 0x1a, 0x00, 0x75, 0x79, 0xc5, 0xf4, 0x1c, 0x63, 0x2f, 0x37, 0xec, 0x0a, 0x27, 0xec, 0x91, 0xe7, 0x91, 0x2f, 0xab, 0xf9, 0x66, 0xa3, 0x0e, 0xd4, 0x43, 0xf5, 0x19, 0x10, 0x29, 0x72, 0xf5, 0xe0, 0x83, 0x6d, 0x1f, 0xb8, 0x1f, 0xe0, 0x9b, 0x54, 0x5f, 0x17, 0x7f, 0x00, 0xc4, 0x58, 0x43, 0xd0, 0x59, 0x7d, 0x35, 0xd5
};

const uint8_t drone_model_segment_6[] PROGMEM = {
    0xca, 0xa2, 0x75, 0x69, 0xf2, 0xa0, 0x6e, 0x2d, 0x2b, 0x45, 0x3f, 0xef, 0x15, 0xb7, 0x8c, 0x84, 0xe2, 0x0d, 0x37, 0xf4, 0xea, 0x40, 0x19, 0x95, 0x83, 0x2a, 0x35, 0xa7, 0x3a, 0x07, 0xea, 0xdd, 0x13, 0x82, 0xf6, 0x81, 0xeb, 0x3c, 0x4f, 0x2e, 0xc8, 0x71, 0x1d, 0x08, 0xd5, 0x2e, 0xb3, 0xa9, 0x9e, 0x4e, 0xa6, 0xc4, 0x21, 0x2c, 0xdc, 0x88, 0x1d, 0xf8, 0x4f, 0x5b, 0xbb, 0x6f, 0x63, 0x31, 0x6e, 0x05, 0xe6, 0x19, 0x38, 0x94, 0x2b, 0x70, 0x4d, 0x72, 0x31, 0x3a, 0x7e, 0x0b, 0x9b, 0xaf, 0x6a, 0x92, 0x81, 0x97, 0x1c, 0x36, 0x95, 0xdc, 0x75, 0xdc, 0x2a, 0x54, 0x7f, 0xe6, 0x18, 0xe6, 0xac, 0xc1, 0x85, 0x05, 0xc4, 0x21, 0x8b, 0x9f, 0xf2, 0x94, 0x21, 0x28, 0x8c, 0xdb, 0x34, 0xd2, 0x0d, 0xc6, 0xd0, 0x6b, 0x66, 0x66, 0x05, 0x2c, 0x59, 0x7d, 0x92, 0xc4, 0xac, 0x04, 0x72, 0xe0, 0x89, 0xf1, 0x47, 0xf1, 0x25, 0x6b, 0x81, 0x21, 0xbc, 0xf9, 0x77, 0x29, 0xc0, 0x76, 0x73, 0x68, 0x69, 0xe2, 0xc8, 0x22, 0x09, 0xbb, 0x07, 0xf8, 0x38, 0xc8, 0xeb, 0x7e, 0xc7, 0xe0, 0x05, 0x81, 0x23, 0xba, 0xbb, 0x29, 0x68, 0x32, 0xd5, 0x50, 0xee, 0xcf, 0x23, 0x4d, 0x01, 0x2a, 0xd6, 0x47, 0xb7, 0x43, 0xc4, 0x0c, 0x11, 0x4f, 0xfd, 0xa1, 0x82, 0x11, 0x05, 0x26, 0xa7, 0x2a, 0x20, 0x95, 0x5c, 0x22, 0x92, 0x07, 0xb2, 0x31, 0x39, 0xf4, 0xa6, 0x4a, 0x40, 0xc7, 0xfb, 0xc6, 0xb6, 0x54, 0x97, 0x72, 0x71, 0x47, 0x20, 0xa6, 0xb5, 0xb5, 0x20, 0xaa, 0x09, 0x0d, 0x9b, 0xc8, 0x63, 0x82, 0x2c, 0xe5, 0x69, 0xeb, 0x48, 0x33, 0x43, 0x55, 0x36, 0x86, 0x7f, 0x6f, 0x97, 0x71, 0x5b, 0x97, 0xa8, 0x73, 0x3b, 0x6d, 0x52, 0x4a, 0x56, 0x8a, 0x1c, 0x3e, 0x2f, 0x7d, 0xfb, 0x91, 0x54, 0xdb, 0xa1, 0x4b, 0xf0, 0x6b, 0x41, 0x81, 0xfb, 0x2a, 0x62, 0x09, 0x34, 0xce, 0x3e, 0x54, 0x05, 0x8d, 0xf6, 0xdc, 0xc8, 0xd5, 0x6a, 0xdb, 0x5d, 0xa2, 0x9a, 0xa4, 0x85, 0x04, 0x14, 0x81, 0x65, 0x89, 0x73, 0xb9, 0x26, 0x7e, 0x42, 0x06, 0x20, 0x45, 0xeb, 0xb3, 0xec, 0x83, 0x8e, 0x64, 0x6c, 0xf6, 0x10, 0x08, 0xdb, 0x0f, 0x52, 0xdf, 0xe3, 0x05, 0x51, 0x56, 0x78, 0x54, 0x8d, 0x1f, 0x9d, 0xa5, 0xde, 0x8c, 0xfa, 0x04, 0x2d, 0x07, 0xa1, 0x8f, 0x0c, 0xc0, 0x88, 0x37, 0x9e, 0x66, 0x7f, 0x4e, 0x90, 0xf0, 0x6a, 0xd5, 0xa5, 0x17, 0xac, 0x6e, 0xbf, 0x08, 0x03, 0x9e, 0x74, 0x96, 0x0a, 0x28, 0xb0, 0x79, 0x3b, 0xe2, 0x45, 0x88, 0x1e, 0xfd, 0xf9, 0x3b, 0x25, 0xaa, 0xbc, 0xc3, 0x14, 0x6b, 0xb4, 0x66, 0xe8, 0x87, 0x22, 0x8d, 0x6d, 0x22, 0x39, 0xf8, 0x61, 0x18, 0x81, 0xc7, 0x07, 0x88, 0x9d, 0x87, 0x18, 0x2b, 0x56, 0x54, 0x79, 0xf1, 0x7b, 0xca, 0x67, 0x7c, 0xe2, 0x65, 0xea, 0x26, 0xa7, 0x49, 0x65, 0x38, 0x18, 0x73, 0x1a, 0x79, 0x83, 0x0d, 0x9f, 0x8d, 0xe5, 0xf6, 0x52, 0x1c, 0x70, 0x7e, 0xd6, 0xdc, 0x26, 0x51, 0xa5, 0xac, 0xef, 0x3e, 0xf7, 0x74, 0xe7, 0xdf, 0x86, 0xf1, 0x10, 0x8b, 0x7f, 0xd4, 0x85, 0xf4, 0x67, 0x7c, 0x4b, 0xcf, 0x94, 0x84, 0xa1, 0xb5, 0xb3, 0xad, 0x25, 0xe0, 0xec, 0x04, 0xd8, 0x9e, 0xc0, 0x34, 0x40, 0x1d, 0xb4, 0xdb, 0xbf, 0x99, 0xac, 0x0d, 0x2b, 0x5b, 0xf1, 0x63, 0x86, 0x00, 0x49, 0x16, 0x18, 0xe1, 0x61, 0x9d, 0x52, 0x8b, 0xc7, 0xf5, 0xa8, 0x88, 0x0f, 0x03, 0x8e, 0x9a, 0x79, 0xd2, 0x83, 0xc1, 0x81, 0x6d, 0xb0, 0xda, 0xc3, 0xfb, 0x2e, 0xf8, 0x94, 0x0e, 0x39, 0xbd, 0x68, 0xa5, 0xac, 0xba, 0x83, 0x89, 0x39, 0x5c, 0xb5, 0x9f, 0xd9, 0xe2, 0x5f, 0x25, 0x56, 0x7e, 0x7f, 0xf3, 0x91, 0x1a, 0xc4, 0x6d, 0xb0, 0x6b, 0x53, 0x01, 0xa7, 0xe4, 0x04, 0x58, 0x2f, 0x90, 0x37, 0x69, 0xd1, 0x38, 0x98, 0xcb, 0x77, 0xda, 0xe4, 0x3a, 0x40, 0x64, 0x0d, 0xe5, 0x66, 0xae, 0x97, 0x1f, 0x95, 0x10, 0x9a, 0xb5, 0xe6, 0x5c, 0xd6, 0x36, 0x0c, 0xf8, 0x1a, 0x31, 0xf8, 0x90, 0x35, 0x57, 0x7f, 0xa8, 0xef, 0x37, 0xb9, 0x20, 0xae, 0xcb, 0xea, 0x36, 0xd2, 0x75, 0x0e, 0x87, 0xf9, 0xe6, 0x16, 0x1f, 0x32, 0x34, 0x35, 0x0b, 0xca, 0xed, 0x9d, 0x3f, 0x1c, 0xbd, 0xe0, 0xfc, 0x28, 0x1f, 0x48, 0xaf, 0x81, 0xa5, 0xaa, 0x7f, 0xc8, 0x8d, 0xd7, 0x54, 0x8a, 0xa1, 0xb4, 0x6a, 0x17, 0xd5, 0xb1, 0xd8, 0xf2, 0xa4, 0x6b, 0x43, 0xe6, 0xcd, 0x4e, 0x45, 0xd7, 0x00, 0x84, 0x18, 0x1e, 0xeb, 0x38, 0xb4, 0x00, 0x34, 0x01, 0x00, 0x51, 0x2a, 0x48, 0x7f, 0xab, 0x6b, 0x48, 0xee, 0xeb, 0xe4, 0x6c, 0x2a, 0x05, 0x82, 0x84, 0x66, 0x9b, 0xde, 0xa2, 0xce, 0xa7, 0xcd, 0x42, 0x57, 0x11, 0xfa, 0x2b, 0xcf, 0x90, 0x95, 0xfd, 0x69, 0xc5, 0x54, 0x28, 0xaa, 0xca, 0xed, 0xeb, 0xe2, 0x46, 0xf6, 0x66, 0xf2, 0xab, 0xe0, 0xac, 0x38, 0xf7, 0x7f, 0x87, 0xd4, 0xf1, 0xee, 0xfc, 0x1d, 0x76, 0xbf, 0xc2, 0x9e, 0x9e, 0x08, 0x16, 0x45, 0xcb, 0xad, 0x7c, 0xa3, 0xbb, 0xe9, 0x68, 0xec, 0x70, 0x03, 0xf6, 0xfc, 0xaa, 0xd4, 0x45, 0xe5, 0x2c, 0x38, 0x4a, 0xc7, 0xae, 0xcf, 0xc0, 0xfb, 0x10, 0x03, 0xa7, 0x25, 0x8a, 0x1f, 0x0d, 0x13, 0x7f, 0x2f, 0x62, 0x50, 0xdf, 0x9d, 0xd2, 0x61, 0xe6, 0xc9, 0x03, 0x31, 0x9b, 0x79, 0x6f, 0x6a, 0x16, 0x78, 0x56, 0x6b, 0xaf, 0x16, 0xf0, 0xd4, 0x54, 0x19, 0x34, 0xe0, 0xa5, 0xd3, 0x94, 0x32, 0x8c, 0x9a, 0x22, 0x19, 0x01, 0x90, 0xd2, 0x4d, 0x3e, 0xa6, 0x13, 0x98, 0xc7, 0xe7, 0x93, 0x0a, 0xf9, 0x98, 0x75, 0x1d, 0x4b, 0xd9, 0x67, 0x6d, 0xb8, 0xd8, 0xdb, 0x08, 0xf2, 0x1b, 0xe2, 0xcc, 0xc5, 0xdd, 0x73, 0xf8, 0x1f, 0x3b, 0x98, 0xf2, 0xe6, 0xa4, 0x9c, 0x01, 0xa2, 0x7f, 0xd9, 0x2d, 0x9d, 0x79, 0x4f, 0xa4, 0xf8, 0x1b, 0xe5, 0x9a, 0x2a, 0xce, 0x95, 0xb9, 0x7f, 0x93, 0x35, 0xfc, 0x9c, 0xed, 0xc5, 0x12, 0xda, 0x2e, 0x61, 0x57, 0x33, 0x05, 0x19, 0xc0, 0xb8, 0x52, 0x63, 0x46, 0x18, 0x22, 0x2f, 0x5d, 0xb2, 0xf2, 0x37, 0xf9, 0x1b, 0x1d, 0x96, 0x7c, 0x9c, 0xb7, 0x50, 0x40, 0xa8, 0x04, 0x9a, 0xc0, 0x73, 0x36, 0xac, 0xab, 0xa6, 0xb2, 0x58, 0xe7, 0x3e, 0xe5, 0xa1, 0xf7, 0xfd, 0x0f, 0x51, 0x81, 0x97, 0x8a, 0x2e, 0x3a, 0x2d, 0x17, 0xd8, 0xbf, 0x6a, 0x03, 0xcd, 0x57, 0x11, 0xf5, 0xcb, 0x97, 0x24, 0xde, 0xb9, 0x23, 0x37, 0xcf, 0x96, 0xf5, 0x3a, 0x8c, 0xfa, 0x66, 0xbc, 0xac, 0x6c, 0x39, 0x81, 0x97, 0x20, 0xad, 0x03, 0x54, 0xaf, 0x62, 0x97, 0x9e, 0xca, 0x4c, 0xf2, 0xea, 0x1d, 0xc4, 0x46, 0x1e, 0x13, 0x6b, 0x98, 0x22, 0x6f, 0xc4, 0x41, 0x41, 0x3a, 0x5c, 0xfc, 0xbc, 0x82, 0x99, 0x6a, 0xcb, 0x85, 0x6c, 0x33, 0x6f, 0x67, 0xb4, 0xef, 0x5e, 0xae, 0x5a, 0xa9, 0x2f, 0xac, 0xd7, 0x82, 0x42, 0x1e, 0x07, 0xa1, 0xa7, 0xec, 0x49, 0x32, 0x52, 0x39, 0xbf, 0xb8, 0x21, 0x84, 0x9b, 0x11, 0x04, 0xb0, 0x40, 0x69, 0x7a, 0x53, 0xe2, 0x32, 0xee, 0xf8, 0x54, 0x1b, 0xa9, 0x4e, 0x04, 0x9b, 0x44, 0x77, 0x60, 0x7f, 0xef, 0x36, 0x24, 0xe6, 0xf2, 0x81, 0xb0, 0xae, 0x6e, 0xbf, 0x51, 0x09, 0xa7, 0x56, 0x23, 0x26, 0x00, 0x2a, 0x56, 0x12, 0xe6, 0x7e, 0x49, 0x90, 0x00
};

const uint8_t drone_model_segment_7[] PROGMEM = {
    0xdb, 0x3d, 0xcb, 0x83, 0x6a, 0x38, 0x1c, 0xd1, 0x38, 0xc4, 0x51, 0x5f, 0x5d, 0xa9, 0x5c, 0x5f, 0x0f, 0x4a, 0x91, 0xad, 0x6f, 0x0a, 0x41, 0xd5, 0x74, 0x00, 0x66, 0x54, 0x4f, 0xe1, 0xe4, 0x01, 0x1c, 0x7e, 0x91, 0x6c, 0x5d, 0x09, 0x7b, 0x43, 0x67, 0x2b, 0x1e, 0x46, 0xb6, 0x44, 0x2b, 0x83, 0x10, 0x2a, 0xa2, 0xa1, 0xd2, 0x6e, 0xdc, 0x14, 0x20, 0xeb, 0x8b, 0x54, 0xcf, 0xf1, 0x24, 0x65, 0xac, 0x1b, 0xfe, 0x0e, 0x1e, 0xe4, 0xed, 0x19, 0xf2, 0xf5, 0x7f, 0x4c, 0x97, 0x38, 0x50, 0x2f, 0x52, 0xc6, 0xe0, 0x75, 0xfa, 0xcd, 0x30, 0x02, 0x1a, 0x8b, 0x76, 0xa0, 0x19, 0x1b, 0x75, 0xb9, 0x1a, 0x08, 0x8e, 0x61, 0x3f, 0x3a, 0x7f, 0xda, 0x14, 0xa6, 0xa5, 0xc6, 0x85, 0xb4, 0x5f, 0xdb, 0x22, 0x6e, 0x95, 0xe1, 0x55, 0xa4, 0x6f, 0x52, 0x9e, 0xc3, 0xff, 0x0a, 0xde, 0xce, 0x8f, 0x44, 0xbd, 0xa5, 0xf1, 0x04, 0xbd, 0xf8, 0xe5, 0x2b, 0xf8, 0x1b, 0x9a, 0x56, 0x9c, 0x0c, 0x24, 0x20, 0x2f, 0x40, 0x03, 0x04, 0x43, 0xb6, 0x81, 0xed, 0x2c, 0xa6, 0xe0, 0x51, 0x4d, 0x83, 0x67, 0x29, 0x05, 0x32, 0x94, 0xb0, 0xa5, 0xdf, 0x5a, 0xc0, 0x16, 0xb7, 0x25, 0x6f, 0xa3, 0x61, 0xf5, 0x0f, 0x83, 0x14, 0xd3, 0x6e, 0x1d, 0x8f, 0x57, 0xca, 0x95, 0x5e, 0x59, 0x95, 0x23, 0xee, 0x7f, 0x8c, 0x04, 0xdb, 0x31, 0xae, 0xa5, 0xe2, 0x0a, 0xbd, 0x1d, 0xaa, 0x20, 0x22, 0x33, 0x36, 0x49, 0xec, 0x5a, 0x94, 0x37, 0xe7, 0x75, 0x92, 0x7b, 0xb7, 0x03, 0xcc, 0xac, 0xb4, 0x5c, 0xdc, 0xd9, 0x53, 0xc2, 0x08, 0x77, 0x81, 0x38, 0x9b, 0xb7, 0xf7, 0x0f, 0xdb, 0x95, 0x38, 0xf0, 0x32, 0xf4, 0xbb, 0x7c, 0xce, 0x1a, 0xc8, 0xb9, 0x0c, 0x6b, 0xbe, 0x24, 0xa7, 0x41, 0x74, 0x75, 0x77, 0x4a, 0xff, 0x57, 0x9b, 0x0b, 0x56, 0x0c, 0xb3, 0xdc, 0xd9, 0xc5, 0x13, 0xc8, 0xde, 0xc2, 0xb0, 0xe5, 0xaa, 0x2b, 0xb6, 0x8f, 0xb6, 0x25, 0x7f, 0xc8, 0x9d, 0x9f, 0xe9, 0x27, 0x93, 0x9d, 0x31, 0x0b, 0x7d, 0xe9, 0x71, 0x12, 0xed, 0x9a, 0xdb, 0xfa, 0x38, 0xe3, 0xc7, 0x4c, 0xc8, 0x3f, 0xbb, 0xaa, 0x0c, 0x14, 0xa2, 0xfd, 0xb0, 0x0d, 0x6c, 0xe7, 0x8b, 0xa4, 0xbc, 0x3f, 0xb3, 0xa7, 0xd7, 0xa6, 0x54, 0x25, 0xe8, 0x58, 0x81, 0x4d, 0xa8, 0xbf, 0xc3, 0x76, 0xe3, 0x32, 0x8a, 0xfd, 0xa0, 0xdc, 0xc2, 0x5e, 0x9a, 0xf7, 0x82, 0x65, 0xde, 0x6c, 0x2e, 0x29, 0x18, 0xc9, 0x5b, 0xef, 0x7c, 0xdb, 0xe1, 0xc8, 0x3d, 0x8b, 0x64, 0xec, 0xe2, 0x6b, 0xe6, 0xa1, 0xab, 0x66, 0x51, 0x27, 0xcb, 0x7b, 0x15, 0x7d, 0xa3, 0x66, 0xda, 0xb6, 0xb3, 0x60, 0x73, 0x0e, 0x28, 0x78, 0xbb, 0x01, 0x9a, 0x7e, 0x84, 0x17, 0x52, 0x6b, 0x45, 0xf2, 0xa7, 0x88, 0x6a, 0x12, 0x7f, 0x5a, 0x2a, 0x7e, 0x6f, 0x11, 0x23, 0x6b, 0xf5, 0x25, 0x30, 0x9d, 0xc6, 0xd5, 0x23, 0xce, 0x57, 0x7b, 0x05, 0x0c, 0xd0, 0x1e, 0x76, 0x07, 0xd7, 0x3b, 0x26, 0x8e, 0x62, 0x3d, 0x63, 0x81, 0x50, 0xa4, 0x99, 0x99, 0x9a, 0x26, 0x68, 0xd4, 0xde, 0xec, 0x1d, 0xa3, 0x45, 0xf5, 0x78, 0xeb, 0x1c, 0x31, 0x4b, 0x87, 0xbc, 0x14, 0xe3, 0x59, 0xf7, 0x81, 0xf7, 0x49, 0xcb, 0x0b, 0xe5, 0x55, 0x41, 0xf5, 0x42, 0x0f, 0x6e, 0x14, 0x3d, 0xe1, 0x2f, 0x7d, 0x4f, 0x15, 0xc9, 0x55, 0x32, 0x5a, 0x5b, 0x95, 0xe6, 0xed, 0x3d, 0x2b, 0x81, 0x03, 0xa1, 0x33, 0xa5, 0xfc, 0x7b, 0x35, 0x05, 0xa5, 0xaa, 0x8b, 0xa4, 0x9b, 0x45, 0xc2, 0xaa, 0xa9, 0xf1, 0xc4, 0x99, 0x12, 0xe2, 0x4f, 0xf5, 0x14, 0x1f, 0xeb, 0xfd, 0x9e, 0x81, 0xe1, 0xd8, 0x56, 0x2b, 0xbe, 0x63, 0xca, 0x05, 0x79, 0x73, 0xfc, 0x65, 0x68, 0x42, 0x19, 0x58, 0x99, 0xc7, 0xc6, 0x6f, 0x3d, 0x71, 0xcc, 0x6d, 0x49, 0x62, 0xc9, 0x6e, 0x77, 0x40, 0x37, 0x82, 0x17, 0x1b, 0x98, 0x87, 0x71, 0x13, 0x95, 0xce, 0xda, 0x66, 0x25, 0x0c, 0x58, 0xde, 0xe0, 0x79, 0x58, 0x8e, 0x28, 0x90, 0x35, 0xf7, 0x36, 0x33, 0x6e, 0x96, 0x26, 0xfc, 0xd1, 0x2d, 0x8b, 0x4a, 0x67, 0x01, 0x1f, 0x40, 0xea, 0x16, 0x1b, 0x25, 0xae, 0x56, 0x7e, 0xa2, 0x30, 0x81, 0x1f, 0xca, 0xe0, 0xfb, 0x05, 0x4b, 0x67, 0x04, 0xf5, 0x8b, 0xf7, 0x0d, 0x5f, 0xa6, 0xa3, 0x72, 0xf4, 0x3f, 0x18, 0xf7, 0x51, 0xf7, 0x3d, 0x49, 0x2f, 0xa5, 0xe8, 0x52, 0x55, 0x48, 0x38, 0x19, 0x61, 0x75, 0x55, 0xa7, 0x13, 0x9b, 0x61, 0xa1, 0xc2, 0x49, 0x10, 0xf6, 0x0e, 0x53, 0x5c, 0x38, 0xbe, 0xea, 0x81, 0x06, 0x22, 0x50, 0x96, 0x85, 0x4b, 0xa8, 0x5a, 0x28, 0x0f, 0x98, 0x08, 0x8d, 0xa6, 0xd3, 0x7e, 0xb4, 0xf0, 0xe7, 0xd1, 0xa6, 0x1f, 0xd7, 0x6f, 0x9e, 0x6c, 0x98, 0x82, 0xb3, 0x33, 0x7c, 0xdf, 0xa1, 0x5e, 0x8a, 0x8f, 0x81, 0x3a, 0x1f, 0x41, 0x93, 0x46, 0xf7, 0x78, 0xb8, 0xe0, 0xda, 0x5c, 0x0c, 0xd6, 0xc1, 0xe3, 0x1f, 0xc2, 0xd3, 0x11, 0x50, 0x6e, 0x5b, 0x05, 0x66, 0x52, 0xad, 0x49, 0x70, 0xe2, 0x5c, 0x26, 0x5d, 0xaa, 0x32, 0xe1, 0xb2, 0x78, 0x34, 0x8c, 0x4a, 0x28, 0x64, 0x74, 0xc9, 0xa7, 0xcb, 0xc6, 0xd8, 0xeb, 0xe2, 0x26, 0x2b, 0xfa, 0x39, 0x2e, 0xe9, 0xaf, 0xd2, 0x51, 0x3d, 0x7f, 0x51, 0xc3, 0x51, 0x8d, 0xe6, 0xaa, 0xad, 0x36, 0x99, 0x64, 0xe5, 0x89, 0xa9, 0x69, 0x10, 0x9f, 0xbe, 0x97, 0xa2, 0xcc, 0x7f, 0xc6, 0x7b, 0xf8, 0x42, 0x5b, 0x17, 0xab, 0xf1, 0x8a, 0x61, 0xf8, 0x78, 0x0b, 0x2a, 0x9c, 0xf1, 0x03, 0x6c, 0xf0, 0x4d, 0x08, 0x76, 0x8c, 0x83, 0x2d, 0x01, 0x07, 0x7c, 0xb1, 0xd5, 0xf9, 0x72, 0x9c, 0x62, 0x4a, 0x40, 0x2a, 0xf6, 0x03, 0xd9, 0x7a, 0xb9, 0xe2, 0xa3, 0x18, 0xb0, 0x4d, 0x3b, 0x0f, 0xa1, 0xb3, 0x42, 0x88, 0xea, 0xa3, 0xfa, 0xbc, 0x5d, 0xbe, 0x96, 0x42, 0x8b, 0x55, 0x96, 0x1a, 0x6b, 0x2b, 0xa0, 0x44, 0x0c, 0x31, 0xb5, 0x66, 0xa6, 0x20, 0x68, 0x99, 0x6f, 0xaf, 0xcd, 0x57, 0x0f, 0xf9, 0x7f, 0xa9, 0x7c, 0x64, 0x50, 0x52, 0xf5, 0x12, 0xf6, 0x66, 0xc5, 0x23, 0x7f, 0xb4, 0xf5, 0x77, 0xcb, 0x30, 0x36, 0xdc, 0x90, 0x95, 0x1a, 0x82, 0x6a, 0xf4, 0xdf, 0x37, 0xf2, 0xb3, 0xcc, 0xfa, 0xa2, 0x99, 0x09, 0xc3, 0x61, 0x3a, 0x5b, 0x5e, 0x49, 0x70, 0x21, 0xa3, 0x09, 0x02, 0xe2, 0xc7, 0xdb, 0xac, 0x5c, 0xe8, 0x40, 0xb6, 0xdd, 0x7f, 0xc3, 0x66, 0x05, 0x68, 0x50, 0x32, 0x51, 0xa6, 0xde, 0x1d, 0x54, 0x1b, 0x9e, 0x15, 0x01, 0xb5, 0x52, 0x6e, 0x15, 0x4d, 0x94, 0x9c, 0x51, 0x09, 0xbc, 0xa0, 0x4f, 0x04, 0x6e, 0x75, 0xac, 0x2d, 0xec, 0x20, 0xe3, 0x57, 0x46, 0x22, 0x0b, 0xb9, 0x40, 0x26, 0xbb, 0x12, 0xc2, 0x08, 0x04, 0x2f, 0x35, 0xeb, 0x26, 0xf2, 0x97, 0xf5, 0x36, 0xf6, 0x20, 0x75, 0xc4, 0xb9, 0xa3, 0xa9, 0xb3, 0x1c, 0xf6, 0x30, 0x94, 0xd6, 0x68, 0xb8, 0x0a, 0x02, 0xbf, 0x16, 0xe3, 0x14, 0xc2, 0x7f, 0x27, 0x3b, 0x01, 0x82, 0xf2, 0xfe, 0xe9, 0xb9, 0xd7, 0xaf, 0xad, 0x13, 0x69, 0x58, 0x2f, 0xc3, 0x0f, 0x93, 0x9c, 0x8c, 0x3a, 0x43, 0x20, 0x17, 0x89, 0x6d, 0x44, 0x05, 0xa6, 0x2f, 0xc0, 0x30, 0x4c, 0xa1, 0xbf, 0x81, 0xda, 0x55, 0x49, 0xe4, 0xbe, 0xa7, 0xf7, 0x47, 0x5f, 0x03, 0x49, 0xe2, 0xb0
};

const uint8_t drone_model_segment_8[] PROGMEM = {
    0x88, 0xea, 0xd4, 0xea, 0x81, 0x75, 0xa0, 0x48, 0x25, 0x2f, 0x72, 0x87, 0xa7, 0x76, 0x4d, 0x63, 0xc6, 0x0c, 0xef, 0x6e, 0x25, 0x22, 0xf4, 0x34, 0xec, 0xee, 0x7f, 0xcd, 0x3a, 0x0f, 0x1b, 0x76, 0xb0, 0xdc, 0x93, 0x7c, 0xcb, 0x53, 0xa6, 0x39, 0xd6, 0xa8, 0xfe, 0xe0, 0xa0, 0xf9, 0x89, 0x6c, 0x9c, 0xb8, 0x19, 0x44, 0xac, 0x88, 0x2b, 0x72, 0xdc, 0x18, 0x16, 0x18, 0x61, 0xb2, 0x1e, 0x2d, 0x88, 0xa2, 0xb3, 0xd9, 0x41, 0x84, 0x00, 0x6f, 0x7c, 0x73, 0x37, 0xb4, 0x96, 0xd0, 0xa0, 0x92, 0x81, 0xb4, 0xa1, 0xc1, 0xe7, 0x03, 0xb9, 0x26, 0x65, 0x3d, 0xfa, 0x40, 0x77, 0x09, 0xca, 0x09, 0x89, 0x44, 0x1f, 0xd1, 0x97, 0x9d, 0x2c, 0x99, 0x83, 0xb5, 0x73, 0x0d, 0x48, 0x1f, 0x0e, 0xc1, 0xdd, 0x74, 0x7c, 0x88, 0x9d, 0xb5, 0x7f, 0xd4, 0xa3, 0x9b, 0xa5, 0xd8, 0x38, 0x46, 0xb9, 0x75, 0x24, 0xf1, 0xb4, 0xd1, 0x45, 0x3c, 0xfb, 0x58, 0x74, 0x57, 0xf1, 0x2d, 0x49, 0xcf, 0x48, 0x39, 0x7a, 0x93, 0x81, 0x5b, 0x16, 0x2b, 0xaf, 0xeb, 0x16, 0xcf, 0x7f, 0x46, 0xee, 0xfc, 0xff, 0xff, 0x04, 0x00, 0x00, 0x00, 0x00, 0x01, 0x00, 0x00, 0x00, 0x00, 0x00, 0x00, 0x00, 0x00, 0x00, 0x00, 0x00, 0x00, 0x00, 0x00, 0x00, 0x00, 0x00, 0x00, 0x00, 0x00, 0x00, 0x00, 0x00, 0x00, 0x00, 0x00, 0x00, 0x00, 0x00, 0x00, 0x00, 0x00, 0x00, 0x00, 0x00, 0x00, 0x00, 0x00, 0x00, 0x00, 0x00, 0x00, 0x00, 0x00, 0x00, 0x00, 0x00, 0x00, 0x00, 0x00, 0x00, 0x00, 0x00, 0x00, 0x00, 0x00, 0x00, 0x00, 0x00, 0x00, 0x00, 0x00, 0x00, 0x00, 0x00, 0x00, 0x00, 0x00, 0x00, 0x00, 0x00, 0x00, 0x00, 0x00, 0x00, 0x00, 0x00, 0x00, 0x00, 0x00, 0x00, 0x00, 0x00, 0x00, 0x00, 0x00, 0x00, 0x00, 0x00, 0x00, 0x00, 0x00, 0x00, 0x00, 0x00, 0x00, 0x00, 0x00, 0x00, 0x00, 0x00, 0x00, 0x00, 0x00, 0x00, 0x00, 0x00, 0x00, 0x00, 0x00, 0x00, 0x00, 0x00, 0x00, 0x00, 0x00, 0x00, 0x00, 0x00, 0x00, 0x00, 0x00, 0x00, 0x00, 0x00, 0x00, 0x00, 0x00, 0x00, 0x00, 0x00, 0x00, 0x00, 0x00, 0x00, 0x00, 0x00, 0x00, 0x00, 0x00, 0x00, 0x00, 0x00, 0x00, 0x00, 0x00, 0x00, 0x00, 0x00, 0x00, 0x00, 0x00, 0x00, 0x00, 0x00, 0x00, 0x00, 0x00, 0x00, 0x00, 0x00, 0x00, 0x00, 0x00, 0x00, 0x00, 0x00, 0x00, 0x00, 0x00, 0x00, 0x00, 0x00, 0x00, 0x00, 0x00, 0x00, 0x00, 0x00, 0x00, 0x00, 0x00, 0x00, 0x00, 0x00, 0x00, 0x00, 0x00, 0x00, 0x00, 0x00, 0x00, 0x00, 0x00, 0x00, 0x00, 0x00, 0x00, 0x00, 0x00, 0x00, 0x00, 0x00, 0x00, 0x00, 0x00, 0x00, 0x00, 0x00, 0x00, 0x00, 0x00, 0x00, 0x00, 0x00, 0x00, 0x00, 0x00, 0x00, 0x00, 0x00, 0x00, 0x00, 0x00, 0x00, 0x00, 0x00, 0x00, 0x00, 0x00, 0x00, 0x00, 0x00, 0x00, 0x00, 0x00, 0x00, 0x00, 0x00, 0x00, 0x00, 0x00, 0x00, 0x00, 0x00, 0x00, 0x00, 0x00, 0x00, 0x00, 0x00, 0x00, 0x00, 0x00, 0x00, 0x00, 0x00, 0x00, 0xfa, 0xfd, 0xff, 0xff, 0x04, 0x00, 0x00, 0x00, 0x80, 0x00, 0x00, 0x00, 0x21, 0x10, 0x2e, 0x96, 0x22, 0xeb, 0x50, 0x7c, 0xd6, 0xe3, 0x7a, 0xec, 0xee, 0xd3, 0x03, 0xb0, 0x5b, 0xc2, 0xca, 0x91, 0x15, 0x31, 0xd9, 0x9a, 0x92, 0xdb, 0x35, 0xb0, 0x36, 0x16, 0x97, 0x82, 0x22, 0xe8, 0x5b, 0x89, 0xf0, 0x19, 0xdb, 0x64, 0x20, 0x7d, 0x67, 0x7e, 0x0d, 0xf3, 0x7f, 0x97, 0x28, 0xae, 0x76, 0x64, 0x5f, 0xe5, 0x0f, 0x93, 0x88, 0x07, 0xc8, 0xd9, 0xc2, 0x09, 0x1c, 0x72, 0xb1, 0x58, 0x0f, 0x4c, 0xcc, 0x43, 0x3e, 0x52, 0x3c, 0x5e, 0x14, 0xa6, 0x6d, 0x74, 0x2d, 0x84, 0x4e, 0xf7, 0x30, 0x9c, 0xe6, 0xa4, 0x30, 0x64, 0x08, 0xb8, 0x3e, 0x62, 0x5f, 0xae, 0x48, 0x2f, 0xc8, 0x26, 0x10, 0x8e, 0xa9, 0xdf, 0xf2, 0xc5, 0x89, 0xc3, 0xf2, 0x81, 0xce, 0x0a, 0x9a, 0x3e, 0x31, 0x97, 0x68, 0x38, 0x3b, 0xed, 0x27, 0x45, 0x40, 0x48, 0x67, 0xcd, 0xe4, 0x53, 0x5f, 0x16, 0x86, 0xfe, 0xff, 0xff, 0x04, 0x00, 0x00, 0x00, 0x04, 0x00, 0x00, 0x00, 0x40, 0x00, 0x00, 0x00, 0x96, 0xfe, 0xff, 0xff, 0x04, 0x00, 0x00, 0x00, 0x04, 0x00, 0x00, 0x00, 0x01, 0x00, 0x00, 0x00, 0xa6, 0xfe, 0xff, 0xff, 0x04, 0x00, 0x00, 0x00, 0x04, 0x00, 0x00, 0x00, 0x00, 0x00, 0x00, 0x00, 0x88, 0xca, 0xff, 0xff, 0x8c, 0xca, 0xff, 0xff, 0x0f, 0x00, 0x00, 0x00, 0x4d, 0x4c, 0x49, 0x52, 0x20, 0x43, 0x6f, 0x6e, 0x76, 0x65, 0x72, 0x74, 0x65, 0x64, 0x2e, 0x00, 0x01, 0x00, 0x00, 0x00, 0x14, 0x00, 0x00, 0x00, 0x00, 0x00, 0x0e, 0x00, 0x18, 0x00, 0x14, 0x00, 0x10, 0x00, 0x0c, 0x00, 0x08, 0x00, 0x04, 0x00, 0x0e, 0x00, 0x00, 0x00, 0x14, 0x00, 0x00, 0x00, 0x1c, 0x00, 0x00, 0x00, 0x78, 0x04, 0x00, 0x00, 0x7c, 0x04, 0x00, 0x00, 0x80, 0x04, 0x00, 0x00, 0x04, 0x00, 0x00, 0x00, 0x6d, 0x61, 0x69, 0x6e, 0x00, 0x00, 0x00, 0x00, 0x10, 0x00, 0x00, 0x00, 0x14, 0x04, 0x00, 0x00, 0xac, 0x03, 0x00, 0x00, 0x5c, 0x03, 0x00, 0x00, 0x14, 0x03, 0x00, 0x00, 0xd4, 0x02, 0x00, 0x00, 0x8c, 0x02, 0x00, 0x00, 0x4c, 0x02, 0x00, 0x00, 0x04, 0x02, 0x00, 0x00, 0xc4, 0x01, 0x00, 0x00, 0x70, 0x01, 0x00, 0x00, 0x34, 0x01, 0x00, 0x00, 0xe4, 0x00, 0x00, 0x00, 0xa4, 0x00, 0x00, 0x00, 0x7c, 0x00, 0x00, 0x00, 0x38, 0x00, 0x00, 0x00, 0x04, 0x00, 0x00, 0x00, 0x9e, 0xfc, 0xff, 0xff, 0x14, 0x00, 0x00, 0x00, 0x00, 0x00, 0x00, 0x09, 0x14, 0x00, 0x00, 0x00, 0x18, 0x00, 0x00, 0x00, 0x08, 0x00, 0x00, 0x00, 0x6a, 0xff, 0xff, 0xff, 0x00, 0x00, 0x80, 0x3f, 0x01, 0x00, 0x00, 0x00, 0x26, 0x00, 0x00, 0x00, 0x01, 0x00, 0x00, 0x00, 0x25, 0x00, 0x00, 0x00, 0xce, 0xfc, 0xff, 0xff, 0x14, 0x00, 0x00, 0x00, 0x00, 0x00, 0x00, 0x08, 0x10, 0x00, 0x00, 0x00, 0x14, 0x00, 0x00, 0x00, 0x07, 0x00, 0x00, 0x00, 0x6c, 0xcb, 0xff, 0xff, 0x01, 0x00, 0x00, 0x00, 0x25, 0x00, 0x00, 0x00, 0x03, 0x00, 0x00, 0x00, 0x24, 0x00, 0x00, 0x00, 0x04, 0x00, 0x00, 0x00, 0xff, 0xff, 0xff, 0xff, 0x00, 0x00, 0x0a, 0x00, 0x10, 0x00, 0x0c, 0x00, 0x08, 0x00, 0x04, 0x00, 0x0a, 0x00, 0x00, 0x00, 0x0c, 0x00, 0x00, 0x00, 0x10, 0x00, 0x00, 0x00, 0x06, 0x00, 0x00, 0x00, 0x01, 0x00, 0x00, 0x00, 0x24, 0x00, 0x00, 0x00, 0x02, 0x00, 0x00, 0x00, 0x20, 0x00, 0x00, 0x00, 0x23, 0x00, 0x00, 0x00, 0x32, 0xfd, 0xff, 0xff, 0x1c, 0x00, 0x00, 0x00, 0x00, 0x00, 0x00, 0x3b, 0x1c, 0x00, 0x00, 0x00, 0x20, 0x00, 0x00, 0x00, 0x05, 0x00, 0x00, 0x00, 0x00, 0x00, 0x06, 0x00, 0x08, 0x00, 0x04, 0x00, 0x06, 0x00, 0x00, 0x00, 0x02, 0x00, 0x00, 0x00, 0x01, 0x00, 0x00, 0x00, 0x23, 0x00, 0x00, 0x00, 0x02, 0x00, 0x00, 0x00, 0x22, 0x00, 0x00, 0x00, 0x03, 0x00, 0x00, 0x00, 0x6e, 0xfd, 0xff, 0xff, 0x24, 0x00, 0x00, 0x00, 0x00, 0x00, 0x00, 0x20, 0x24, 0x00, 0x00, 0x00, 0x28, 0x00, 0x00, 0x00, 0x04, 0x00, 0x00, 0x00, 0x00, 0x00, 0x0e, 0x00, 0x08, 0x00, 0x00, 0x00, 0x00, 0x00, 0x00, 0x00, 0x00, 0x00, 0x04, 0x00, 0x0e, 0x00, 0x00, 0x00, 0x01, 0x00, 0x00, 0x00
};

const uint8_t drone_model_segment_9[] PROGMEM = {
    0x01, 0x00, 0x00, 0x00, 0x22, 0x00, 0x00, 0x00, 0x04, 0x00, 0x00, 0x00, 0x21, 0x00, 0x00, 0x00, 0x01, 0x00, 0x00, 0x00, 0x02, 0x00, 0x00, 0x00, 0x02, 0x00, 0x00, 0x00, 0xba, 0xfd, 0xff, 0xff, 0x1c, 0x00, 0x00, 0x00, 0x00, 0x00, 0x00, 0x37, 0x1c, 0x00, 0x00, 0x00, 0x20, 0x00, 0x00, 0x00, 0x03, 0x00, 0x00, 0x00, 0x00, 0x00, 0x06, 0x00, 0x08, 0x00, 0x07, 0x00, 0x06, 0x00, 0x00, 0x00, 0x00, 0x00, 0x00, 0x02, 0x01, 0x00, 0x00, 0x00, 0x21, 0x00, 0x00, 0x00, 0x01, 0x00, 0x00, 0x00, 0x20, 0x00, 0x00, 0x00, 0xf2, 0xfd, 0xff, 0xff, 0x24, 0x00, 0x00, 0x00, 0x00, 0x00, 0x00, 0x05, 0x34, 0x00, 0x00, 0x00, 0x38, 0x00, 0x00, 0x00, 0x02, 0x00, 0x00, 0x00, 0x00, 0x00, 0x0e, 0x00, 0x18, 0x00, 0x17, 0x00, 0x10, 0x00, 0x0c, 0x00, 0x08, 0x00, 0x04, 0x00, 0x0e, 0x00, 0x00, 0x00, 0x03, 0x00, 0x00, 0x00, 0x03, 0x00, 0x00, 0x00, 0x03, 0x00, 0x00, 0x00, 0x03, 0x00, 0x00, 0x00, 0x00, 0x00, 0x00, 0x01, 0x01, 0x00, 0x00, 0x00, 0x20, 0x00, 0x00, 0x00, 0x01, 0x00, 0x00, 0x00, 0x1f, 0x00, 0x00, 0x00, 0xde, 0xfd, 0xff, 0xff, 0x10, 0x00, 0x00, 0x00, 0x00, 0x00, 0x00, 0x01, 0x18, 0x00, 0x00, 0x00, 0x1c, 0x00, 0x00, 0x00, 0xd0, 0xfd, 0xff, 0xff, 0x00, 0x00, 0x00, 0x01, 0x01, 0x00, 0x00, 0x00, 0x01, 0x00, 0x00, 0x00, 0x01, 0x00, 0x00, 0x00, 0x1f, 0x00, 0x00, 0x00, 0x03, 0x00, 0x00, 0x00, 0x1e, 0x00, 0x00, 0x00, 0x06, 0x00, 0x00, 0x00, 0x05, 0x00, 0x00, 0x00, 0x7e, 0xfe, 0xff, 0xff, 0x14, 0x00, 0x00, 0x00, 0x00, 0x00, 0x00, 0x02, 0x20, 0x00, 0x00, 0x00, 0x24, 0x00, 0x00, 0x00, 0x01, 0x00, 0x00, 0x00, 0x6e, 0xfe, 0xff, 0xff, 0x00, 0x00, 0x00, 0x01, 0x01, 0x00, 0x00, 0x00, 0x02, 0x00, 0x00, 0x00, 0x02, 0x00, 0x00, 0x00, 0x01, 0x00, 0x00, 0x00, 0x1e, 0x00, 0x00, 0x00, 0x03, 0x00, 0x00, 0x00, 0x1d, 0x00, 0x00, 0x00, 0x07, 0x00, 0x00, 0x00, 0x09, 0x00, 0x00, 0x00, 0x5e, 0xfe, 0xff, 0xff, 0x10, 0x00, 0x00, 0x00, 0x00, 0x00, 0x00, 0x01, 0x18, 0x00, 0x00, 0x00, 0x1c, 0x00, 0x00, 0x00, 0x50, 0xfe, 0xff, 0xff, 0x00, 0x00, 0x00, 0x01, 0x01, 0x00, 0x00, 0x00, 0x01, 0x00, 0x00, 0x00, 0x01, 0x00, 0x00, 0x00, 0x1d, 0x00, 0x00, 0x00, 0x03, 0x00, 0x00, 0x00, 0x1c, 0x00, 0x00, 0x00, 0x0a, 0x00, 0x00, 0x00, 0x08, 0x00, 0x00, 0x00, 0xfe, 0xfe, 0xff, 0xff, 0x14, 0x00, 0x00, 0x00, 0x00, 0x00, 0x00, 0x02, 0x20, 0x00, 0x00, 0x00, 0x24, 0x00, 0x00, 0x00, 0x01, 0x00, 0x00, 0x00, 0xee, 0xfe, 0xff, 0xff, 0x00, 0x00, 0x00, 0x01, 0x01, 0x00, 0x00, 0x00, 0x02, 0x00, 0x00, 0x00, 0x02, 0x00, 0x00, 0x00, 0x01, 0x00, 0x00, 0x00, 0x1c, 0x00, 0x00, 0x00, 0x03, 0x00, 0x00, 0x00, 0x1b, 0x00, 0x00, 0x00, 0x0b, 0x00, 0x00, 0x00, 0x0d, 0x00, 0x00, 0x00, 0xde, 0xfe, 0xff, 0xff, 0x10, 0x00, 0x00, 0x00, 0x00, 0x00, 0x00, 0x01, 0x18, 0x00, 0x00, 0x00, 0x1c, 0x00, 0x00, 0x00, 0xd0, 0xfe, 0xff, 0xff, 0x00, 0x00, 0x00, 0x01, 0x01, 0x00, 0x00, 0x00, 0x01, 0x00, 0x00, 0x00, 0x01, 0x00, 0x00, 0x00, 0x1b, 0x00, 0x00, 0x00, 0x03, 0x00, 0x00, 0x00, 0x1a, 0x00, 0x00, 0x00, 0x0e, 0x00, 0x00, 0x00, 0x0c, 0x00, 0x00, 0x00, 0x7e, 0xff, 0xff, 0xff, 0x14, 0x00, 0x00, 0x00, 0x00, 0x00, 0x00, 0x02, 0x20, 0x00, 0x00, 0x00, 0x24, 0x00, 0x00, 0x00, 0x01, 0x00, 0x00, 0x00, 0x6e, 0xff, 0xff, 0xff, 0x00, 0x00, 0x00, 0x01, 0x01, 0x00, 0x00, 0x00, 0x02, 0x00, 0x00, 0x00, 0x02, 0x00, 0x00, 0x00, 0x01, 0x00, 0x00, 0x00, 0x1a, 0x00, 0x00, 0x00, 0x03, 0x00, 0x00, 0x00, 0x19, 0x00, 0x00, 0x00, 0x0f, 0x00, 0x00, 0x00, 0x11, 0x00, 0x00, 0x00, 0x5e, 0xff, 0xff, 0xff, 0x10, 0x00, 0x00, 0x00, 0x00, 0x00, 0x00, 0x01, 0x18, 0x00, 0x00, 0x00, 0x1c, 0x00, 0x00, 0x00, 0x50, 0xff, 0xff, 0xff, 0x00, 0x00, 0x00, 0x01, 0x01, 0x00, 0x00, 0x00, 0x01, 0x00, 0x00, 0x00, 0x01, 0x00, 0x00, 0x00, 0x19, 0x00, 0x00, 0x00, 0x03, 0x00, 0x00, 0x00, 0x18, 0x00, 0x00, 0x00, 0x12, 0x00, 0x00, 0x00, 0x10, 0x00, 0x00, 0x00, 0x00, 0x00, 0x0e, 0x00, 0x1a, 0x00, 0x14, 0x00, 0x10, 0x00, 0x0c, 0x00, 0x0b, 0x00, 0x04, 0x00, 0x0e, 0x00, 0x00, 0x00, 0x24, 0x00, 0x00, 0x00, 0x00, 0x00, 0x00, 0x02, 0x30, 0x00, 0x00, 0x00, 0x34, 0x00, 0x00, 0x00, 0x01, 0x00, 0x00, 0x00, 0x00, 0x00, 0x0e, 0x00, 0x14, 0x00, 0x00, 0x00, 0x10, 0x00, 0x0c, 0x00, 0x08, 0x00, 0x07, 0x00, 0x0e, 0x00, 0x00, 0x00, 0x00, 0x00, 0x00, 0x01, 0x01, 0x00, 0x00, 0x00, 0x02, 0x00, 0x00, 0x00, 0x02, 0x00, 0x00, 0x00, 0x01, 0x00, 0x00, 0x00, 0x18, 0x00, 0x00, 0x00, 0x03, 0x00, 0x00, 0x00, 0x17, 0x00, 0x00, 0x00, 0x13, 0x00, 0x00, 0x00, 0x15, 0x00, 0x00, 0x00, 0x00, 0x00, 0x0e, 0x00, 0x14, 0x00, 0x00, 0x00, 0x10, 0x00, 0x0c, 0x00, 0x0b, 0x00, 0x04, 0x00, 0x0e, 0x00, 0x00, 0x00, 0x1c, 0x00, 0x00, 0x00, 0x00, 0x00, 0x00, 0x01, 0x24, 0x00, 0x00, 0x00, 0x28, 0x00, 0x00, 0x00, 0x0c, 0x00, 0x10, 0x00, 0x00, 0x00, 0x0c, 0x00, 0x08, 0x00, 0x07, 0x00, 0x0c, 0x00, 0x00, 0x00, 0x00, 0x00, 0x00, 0x01, 0x02, 0x00, 0x00, 0x00, 0x02, 0x00, 0x00, 0x00, 0x01, 0x00, 0x00, 0x00, 0x17, 0x00, 0x00, 0x00, 0x03, 0x00, 0x00, 0x00, 0x00, 0x00, 0x00, 0x00, 0x16, 0x00, 0x00, 0x00, 0x14, 0x00, 0x00, 0x00, 0x01, 0x00, 0x00, 0x00, 0x26, 0x00, 0x00, 0x00, 0x01, 0x00, 0x00, 0x00, 0x00, 0x00, 0x00, 0x00, 0x27, 0x00, 0x00, 0x00, 0xe8, 0x30, 0x00, 0x00, 0x8c, 0x30, 0x00, 0x00, 0x34, 0x30, 0x00, 0x00, 0xf8, 0x2f, 0x00, 0x00, 0x84, 0x2f, 0x00, 0x00, 0x30, 0x2c, 0x00, 0x00, 0xcc, 0x28, 0x00, 0x00, 0x10, 0x26, 0x00, 0x00, 0x7c, 0x23, 0x00, 0x00, 0xe8, 0x20, 0x00, 0x00, 0x44, 0x1e, 0x00, 0x00, 0x5c, 0x1c, 0x00, 0x00, 0x84, 0x1a, 0x00, 0x00, 0xb0, 0x18, 0x00, 0x00, 0xcc, 0x16, 0x00, 0x00, 0x44, 0x15, 0x00, 0x00, 0xcc, 0x13, 0x00, 0x00, 0x58, 0x12, 0x00, 0x00, 0xd4, 0x10, 0x00, 0x00, 0xac, 0x0f, 0x00, 0x00, 0x94, 0x0e, 0x00, 0x00, 0x80, 0x0d, 0x00, 0x00, 0x5c, 0x0c, 0x00, 0x00, 0x78, 0x0b, 0x00, 0x00, 0x54, 0x0a, 0x00, 0x00, 0x68, 0x09, 0x00, 0x00, 0x44, 0x08, 0x00, 0x00, 0x58, 0x07, 0x00, 0x00, 0x34, 0x06, 0x00, 0x00, 0x48, 0x05, 0x00, 0x00, 0x24, 0x04, 0x00, 0x00, 0x38, 0x03, 0x00, 0x00, 0x9c, 0x02, 0x00, 0x00, 0x4c, 0x02, 0x00, 0x00, 0xf8, 0x01, 0x00, 0x00, 0xa0, 0x01, 0x00, 0x00, 0x1c, 0x01, 0x00, 0x00, 0x80, 0x00, 0x00, 0x00, 0x04, 0x00, 0x00, 0x00, 0xca, 0xcf, 0xff, 0xff, 0x00, 0x00, 0x00, 0x01, 0x18, 0x00, 0x00, 0x00, 0x20, 0x00, 0x00, 0x00, 0x3c, 0x00, 0x00, 0x00, 0x27, 0x00, 0x00, 0x00, 0x00, 0x00, 0x00, 0x09, 0x50, 0x00, 0x00, 0x00, 0x02, 0x00, 0x00, 0x00, 0xff, 0xff, 0xff, 0xff, 0x02, 0x00, 0x00, 0x00, 0xac, 0xcf, 0xff, 0xff, 0x08, 0x00, 0x00, 0x00
};

const uint8_t drone_model_segment_10[] PROGMEM = {
    0x10, 0x00, 0x00, 0x00, 0x01, 0x00, 0x00, 0x00, 0x80, 0xff, 0xff, 0xff, 0xff, 0xff, 0xff, 0xff, 0x01, 0x00, 0x00, 0x00, 0x00, 0x00, 0x80, 0x3b, 0x1b, 0x00, 0x00, 0x00, 0x53, 0x74, 0x61, 0x74, 0x65, 0x66, 0x75, 0x6c, 0x50, 0x61, 0x72, 0x74, 0x69, 0x74, 0x69, 0x6f, 0x6e, 0x65, 0x64, 0x43, 0x61, 0x6c, 0x6c, 0x5f, 0x31, 0x3a, 0x30, 0x00, 0x02, 0x00, 0x00, 0x00, 0x01, 0x00, 0x00, 0x00, 0x02, 0x00, 0x00, 0x00, 0x42, 0xd0, 0xff, 0xff, 0x00, 0x00, 0x00, 0x01, 0x18, 0x00, 0x00, 0x00, 0x20, 0x00, 0x00, 0x00, 0x3c, 0x00, 0x00, 0x00, 0x26, 0x00, 0x00, 0x00, 0x00, 0x00, 0x00, 0x09, 0x70, 0x00, 0x00, 0x00, 0x02, 0x00, 0x00, 0x00, 0xff, 0xff, 0xff, 0xff, 0x02, 0x00, 0x00, 0x00, 0x24, 0xd0, 0xff, 0xff, 0x08, 0x00, 0x00, 0x00, 0x10, 0x00, 0x00, 0x00, 0x01, 0x00, 0x00, 0x00, 0x80, 0xff, 0xff, 0xff, 0xff, 0xff, 0xff, 0xff, 0x01, 0x00, 0x00, 0x00, 0x89, 0xee, 0x66, 0x34, 0x38, 0x00, 0x00, 0x00, 0x66, 0x75, 0x6e, 0x63, 0x74, 0x69, 0x6f, 0x6e, 0x61, 0x6c, 0x5f, 0x31, 0x2f, 0x64, 0x65, 0x6e, 0x73, 0x65, 0x5f, 0x31, 0x2f, 0x4d, 0x61, 0x74, 0x4d, 0x75, 0x6c, 0x3b, 0x66, 0x75, 0x6e, 0x63, 0x74, 0x69, 0x6f, 0x6e, 0x61, 0x6c, 0x5f, 0x31, 0x2f, 0x64, 0x65, 0x6e, 0x73, 0x65, 0x5f, 0x31, 0x2f, 0x42, 0x69, 0x61, 0x73, 0x41, 0x64, 0x64, 0x00, 0x00, 0x00, 0x00, 0x02, 0x00, 0x00, 0x00, 0x01, 0x00, 0x00, 0x00, 0x02, 0x00, 0x00, 0x00, 0xda, 0xd0, 0xff, 0xff, 0x00, 0x00, 0x00, 0x01, 0x18, 0x00, 0x00, 0x00, 0x20, 0x00, 0x00, 0x00, 0x40, 0x00, 0x00, 0x00, 0x25, 0x00, 0x00, 0x00, 0x00, 0x00, 0x00, 0x09, 0x58, 0x00, 0x00, 0x00, 0x02, 0x00, 0x00, 0x00, 0xff, 0xff, 0xff, 0xff, 0x40, 0x00, 0x00, 0x00, 0xbc, 0xd0, 0xff, 0xff, 0x08, 0x00, 0x00, 0x00, 0x14, 0x00, 0x00, 0x00, 0x01, 0x00, 0x00, 0x00, 0x80, 0xff, 0xff, 0xff, 0xff, 0xff, 0xff, 0xff, 0x00, 0x00, 0x00, 0x00, 0x01, 0x00, 0x00, 0x00, 0x16, 0x05, 0x26, 0x35, 0x1e, 0x00, 0x00, 0x00, 0x66, 0x75, 0x6e, 0x63, 0x74, 0x69, 0x6f, 0x6e, 0x61, 0x6c, 0x5f, 0x31, 0x2f, 0x66, 0x6c, 0x61, 0x74, 0x74, 0x65, 0x6e, 0x5f, 0x31, 0x2f, 0x52, 0x65, 0x73, 0x68, 0x61, 0x70, 0x65, 0x00, 0x00, 0x02, 0x00, 0x00, 0x00, 0x01, 0x00, 0x00, 0x00, 0x40, 0x00, 0x00, 0x00, 0xb2, 0xd1, 0xff, 0xff, 0x00, 0x00, 0x00, 0x01, 0x14, 0x00, 0x00, 0x00, 0x14, 0x00, 0x00, 0x00, 0x24, 0x00, 0x00, 0x00, 0x00, 0x00, 0x00, 0x02, 0x34, 0x00, 0x00, 0x00, 0x9c, 0xd1, 0xff, 0xff, 0x24, 0x00, 0x00, 0x00, 0x66, 0x75, 0x6e, 0x63, 0x74, 0x69, 0x6f, 0x6e, 0x61, 0x6c, 0x5f, 0x31, 0x2f, 0x66, 0x6c, 0x61, 0x74, 0x74, 0x65, 0x6e, 0x5f, 0x31, 0x2f, 0x52, 0x65, 0x73, 0x68, 0x61, 0x70, 0x65, 0x2f, 0x73, 0x68, 0x61, 0x70, 0x65, 0x00, 0x00, 0x00, 0x00, 0x01, 0x00, 0x00, 0x00, 0x02, 0x00, 0x00, 0x00, 0x06, 0xd2, 0xff, 0xff, 0x00, 0x00, 0x00, 0x01, 0x14, 0x00, 0x00, 0x00, 0x14, 0x00, 0x00, 0x00, 0x23, 0x00, 0x00, 0x00, 0x00, 0x00, 0x00, 0x02, 0x34, 0x00, 0x00, 0x00, 0xf0, 0xd1, 0xff, 0xff, 0x24, 0x00, 0x00, 0x00, 0x66, 0x75, 0x6e, 0x63, 0x74, 0x69, 0x6f, 0x6e, 0x61, 0x6c, 0x5f, 0x31, 0x2f, 0x66, 0x6c, 0x61, 0x74, 0x74, 0x65, 0x6e, 0x5f, 0x31, 0x2f, 0x73, 0x74, 0x72, 0x69, 0x64, 0x65, 0x64, 0x5f, 0x73, 0x6c, 0x69, 0x63, 0x65, 0x00, 0x00, 0x00, 0x00, 0x00, 0x00, 0x00, 0x00, 0x56, 0xd2, 0xff, 0xff, 0x00, 0x00, 0x00, 0x01, 0x14, 0x00, 0x00, 0x00, 0x14, 0x00, 0x00, 0x00, 0x22, 0x00, 0x00, 0x00, 0x00, 0x00, 0x00, 0x02, 0x2c, 0x00, 0x00, 0x00, 0x40, 0xd2, 0xff, 0xff, 0x1c, 0x00, 0x00, 0x00, 0x66, 0x75, 0x6e, 0x63, 0x74, 0x69, 0x6f, 0x6e, 0x61, 0x6c, 0x5f, 0x31, 0x2f, 0x66, 0x6c, 0x61, 0x74, 0x74, 0x65, 0x6e, 0x5f, 0x31, 0x2f, 0x53, 0x68, 0x61, 0x70, 0x65, 0x00, 0x00, 0x00, 0x00, 0x01, 0x00, 0x00, 0x00, 0x04, 0x00, 0x00, 0x00, 0x4a, 0xd2, 0xff, 0xff, 0x00, 0x00, 0x00, 0x01, 0x18, 0x00, 0x00, 0x00, 0x28, 0x00, 0x00, 0x00, 0x44, 0x00, 0x00, 0x00, 0x21, 0x00, 0x00, 0x00, 0x00, 0x00, 0x00, 0x09, 0x68, 0x00, 0x00, 0x00, 0x04, 0x00, 0x00, 0x00, 0xff, 0xff, 0xff, 0xff, 0x01, 0x00, 0x00, 0x00, 0x01, 0x00, 0x00, 0x00, 0x40, 0x00, 0x00, 0x00, 0x34, 0xd2, 0xff, 0xff, 0x08, 0x00, 0x00, 0x00, 0x10, 0x00, 0x00, 0x00, 0x01, 0x00, 0x00, 0x00, 0x80, 0xff, 0xff, 0xff, 0xff, 0xff, 0xff, 0xff, 0x01, 0x00, 0x00, 0x00, 0x16, 0x05, 0x26, 0x35, 0x28, 0x00, 0x00, 0x00, 0x66, 0x75, 0x6e, 0x63, 0x74, 0x69, 0x6f, 0x6e, 0x61, 0x6c, 0x5f, 0x31, 0x2f, 0x61, 0x76, 0x65, 0x72, 0x61, 0x67, 0x65, 0x5f, 0x70, 0x6f, 0x6f, 0x6c, 0x69, 0x6e, 0x67, 0x32, 0x64, 0x5f, 0x31, 0x2f, 0x41, 0x76, 0x67, 0x50, 0x6f, 0x6f, 0x6c, 0x00, 0x00, 0x00, 0x00, 0x04, 0x00, 0x00, 0x00, 0x01, 0x00, 0x00, 0x00, 0x01, 0x00, 0x00, 0x00, 0x01, 0x00, 0x00, 0x00, 0x40, 0x00, 0x00, 0x00, 0xe2, 0xd2, 0xff, 0xff, 0x00, 0x00, 0x00, 0x01, 0x18, 0x00, 0x00, 0x00, 0x28, 0x00, 0x00, 0x00, 0x48, 0x00, 0x00, 0x00, 0x20, 0x00, 0x00, 0x00, 0x00, 0x00, 0x00, 0x09, 0xb8, 0x00, 0x00, 0x00, 0x04, 0x00, 0x00, 0x00, 0xff, 0xff, 0xff, 0xff, 0x03, 0x00, 0x00, 0x00, 0x03, 0x00, 0x00, 0x00, 0x40, 0x00, 0x00, 0x00, 0xcc, 0xd2, 0xff, 0xff, 0x08, 0x00, 0x00, 0x00, 0x14, 0x00, 0x00, 0x00, 0x01, 0x00, 0x00, 0x00, 0x80, 0xff, 0xff, 0xff, 0xff, 0xff, 0xff, 0xff, 0x00, 0x00, 0x00, 0x00, 0x01, 0x00, 0x00, 0x00, 0x16, 0x05, 0x26, 0x35, 0x74, 0x00, 0x00, 0x00, 0x66, 0x75, 0x6e, 0x63, 0x74, 0x69, 0x6f, 0x6e, 0x61, 0x6c, 0x5f, 0x31, 0x2f, 0x72, 0x65, 0x5f, 0x6c, 0x75, 0x5f, 0x38, 0x5f, 0x31, 0x2f, 0x52, 0x65, 0x6c, 0x75, 0x3b, 0x66, 0x75, 0x6e, 0x63, 0x74, 0x69, 0x6f, 0x6e, 0x61, 0x6c, 0x5f, 0x31, 0x2f, 0x62, 0x61, 0x74, 0x63, 0x68, 0x5f, 0x6e, 0x6f, 0x72, 0x6d, 0x61, 0x6c, 0x69, 0x7a, 0x61, 0x74, 0x69, 0x6f, 0x6e, 0x5f, 0x38, 0x5f, 0x31, 0x2f, 0x62, 0x61, 0x74, 0x63, 0x68, 0x6e, 0x6f, 0x72, 0x6d, 0x2f, 0x61, 0x64, 0x64, 0x5f, 0x31, 0x3b, 0x66, 0x75, 0x6e, 0x63, 0x74, 0x69, 0x6f, 0x6e, 0x61, 0x6c, 0x5f, 0x31, 0x2f, 0x63, 0x6f, 0x6e, 0x76, 0x32, 0x64, 0x5f, 0x34, 0x5f, 0x31, 0x2f, 0x63, 0x6f, 0x6e, 0x76, 0x6f, 0x6c, 0x75, 0x74, 0x69, 0x6f, 0x6e, 0x00, 0x00, 0x00, 0x00, 0x04, 0x00, 0x00, 0x00, 0x01, 0x00, 0x00, 0x00, 0x03, 0x00, 0x00, 0x00, 0x03, 0x00, 0x00, 0x00, 0x40, 0x00, 0x00, 0x00, 0xca, 0xd3, 0xff, 0xff, 0x00, 0x00, 0x00, 0x01, 0x18, 0x00, 0x00, 0x00, 0x28, 0x00, 0x00, 0x00, 0x44, 0x00, 0x00, 0x00, 0x1f, 0x00, 0x00, 0x00, 0x00, 0x00, 0x00, 0x09, 0xf0, 0x00, 0x00, 0x00, 0x04, 0x00, 0x00, 0x00, 0xff, 0xff, 0xff, 0xff, 0x03, 0x00, 0x00, 0x00, 0x03, 0x00, 0x00, 0x00, 0x30, 0x00, 0x00, 0x00
};

const uint8_t drone_model_segment_11[] PROGMEM = {
    0xb4, 0xd3, 0xff, 0xff, 0x08, 0x00, 0x00, 0x00, 0x10, 0x00, 0x00, 0x00, 0x01, 0x00, 0x00, 0x00, 0x80, 0xff, 0xff, 0xff, 0xff, 0xff, 0xff, 0xff, 0x01, 0x00, 0x00, 0x00, 0xc5, 0x52, 0xe1, 0x35, 0xb2, 0x00, 0x00, 0x00, 0x66, 0x75, 0x6e, 0x63, 0x74, 0x69, 0x6f, 0x6e, 0x61, 0x6c, 0x5f, 0x31, 0x2f, 0x72, 0x65, 0x5f, 0x6c, 0x75, 0x5f, 0x37, 0x5f, 0x31, 0x2f, 0x52, 0x65, 0x6c, 0x75, 0x3b, 0x66, 0x75, 0x6e, 0x63, 0x74, 0x69, 0x6f, 0x6e, 0x61, 0x6c, 0x5f, 0x31, 0x2f, 0x62, 0x61, 0x74, 0x63, 0x68, 0x5f, 0x6e, 0x6f, 0x72, 0x6d, 0x61, 0x6c, 0x69, 0x7a, 0x61, 0x74, 0x69, 0x6f, 0x6e, 0x5f, 0x37, 0x5f, 0x31, 0x2f, 0x62, 0x61, 0x74, 0x63, 0x68, 0x6e, 0x6f, 0x72, 0x6d, 0x2f, 0x61, 0x64, 0x64, 0x5f, 0x31, 0x3b, 0x66, 0x75, 0x6e, 0x63, 0x74, 0x69, 0x6f, 0x6e, 0x61, 0x6c, 0x5f, 0x31, 0x2f, 0x62, 0x61, 0x74, 0x63, 0x68, 0x5f, 0x6e, 0x6f, 0x72, 0x6d, 0x61, 0x6c, 0x69, 0x7a, 0x61, 0x74, 0x69, 0x6f, 0x6e, 0x5f, 0x37, 0x5f, 0x31, 0x2f, 0x62, 0x61, 0x74, 0x63, 0x68, 0x6e, 0x6f, 0x72, 0x6d, 0x2f, 0x6d, 0x75, 0x6c, 0x5f, 0x31, 0x3b, 0x66, 0x75, 0x6e, 0x63, 0x74, 0x69, 0x6f, 0x6e, 0x61, 0x6c, 0x5f, 0x31, 0x2f, 0x64, 0x65, 0x70, 0x74, 0x68, 0x77, 0x69, 0x73, 0x65, 0x5f, 0x63, 0x6f, 0x6e, 0x76, 0x32, 0x64, 0x5f, 0x33, 0x5f, 0x31, 0x2f, 0x64, 0x65, 0x70, 0x74, 0x68, 0x77, 0x69, 0x73, 0x65, 0x3b, 0x00, 0x00, 0x04, 0x00, 0x00, 0x00, 0x01, 0x00, 0x00, 0x00, 0x03, 0x00, 0x00, 0x00, 0x03, 0x00, 0x00, 0x00, 0x30, 0x00, 0x00, 0x00, 0xea, 0xd4, 0xff, 0xff, 0x00, 0x00, 0x00, 0x01, 0x18, 0x00, 0x00, 0x00, 0x28, 0x00, 0x00, 0x00, 0x48, 0x00, 0x00, 0x00, 0x1e, 0x00, 0x00, 0x00, 0x00, 0x00, 0x00, 0x09, 0xb8, 0x00, 0x00, 0x00, 0x04, 0x00, 0x00, 0x00, 0xff, 0xff, 0xff, 0xff, 0x06, 0x00, 0x00, 0x00, 0x06, 0x00, 0x00, 0x00, 0x30, 0x00, 0x00, 0x00, 0xd4, 0xd4, 0xff, 0xff, 0x08, 0x00, 0x00, 0x00, 0x14, 0x00, 0x00, 0x00, 0x01, 0x00, 0x00, 0x00, 0x80, 0xff, 0xff, 0xff, 0xff, 0xff, 0xff, 0xff, 0x00, 0x00, 0x00, 0x00, 0x01, 0x00, 0x00, 0x00, 0xca, 0x1d, 0x36, 0x37, 0x74, 0x00, 0x00, 0x00, 0x66, 0x75, 0x6e, 0x63, 0x74, 0x69, 0x6f, 0x6e, 0x61, 0x6c, 0x5f, 0x31, 0x2f, 0x72, 0x65, 0x5f, 0x6c, 0x75, 0x5f, 0x36, 0x5f, 0x31, 0x2f, 0x52, 0x65, 0x6c, 0x75, 0x3b, 0x66, 0x75, 0x6e, 0x63, 0x74, 0x69, 0x6f, 0x6e, 0x61, 0x6c, 0x5f, 0x31, 0x2f, 0x62, 0x61, 0x74, 0x63, 0x68, 0x5f, 0x6e, 0x6f, 0x72, 0x6d, 0x61, 0x6c, 0x69, 0x7a, 0x61, 0x74, 0x69, 0x6f, 0x6e, 0x5f, 0x36, 0x5f, 0x31, 0x2f, 0x62, 0x61, 0x74, 0x63, 0x68, 0x6e, 0x6f, 0x72, 0x6d, 0x2f, 0x61, 0x64, 0x64, 0x5f, 0x31, 0x3b, 0x66, 0x75, 0x6e, 0x63, 0x74, 0x69, 0x6f, 0x6e, 0x61, 0x6c, 0x5f, 0x31, 0x2f, 0x63, 0x6f, 0x6e, 0x76, 0x32, 0x64, 0x5f, 0x33, 0x5f, 0x31, 0x2f, 0x63, 0x6f, 0x6e, 0x76, 0x6f, 0x6c, 0x75, 0x74, 0x69, 0x6f, 0x6e, 0x00, 0x00, 0x00, 0x00, 0x04, 0x00, 0x00, 0x00, 0x01, 0x00, 0x00, 0x00, 0x06, 0x00, 0x00, 0x00, 0x06, 0x00, 0x00, 0x00, 0x30, 0x00, 0x00, 0x00, 0xd2, 0xd5, 0xff, 0xff, 0x00, 0x00, 0x00, 0x01, 0x18, 0x00, 0x00, 0x00, 0x28, 0x00, 0x00, 0x00, 0x44, 0x00, 0x00, 0x00, 0x1d, 0x00, 0x00, 0x00, 0x00, 0x00, 0x00, 0x09, 0xf0, 0x00, 0x00, 0x00, 0x04, 0x00, 0x00, 0x00, 0xff, 0xff, 0xff, 0xff, 0x06, 0x00, 0x00, 0x00, 0x06, 0x00, 0x00, 0x00, 0x20, 0x00, 0x00, 0x00, 0xbc, 0xd5, 0xff, 0xff, 0x08, 0x00, 0x00, 0x00, 0x10, 0x00, 0x00, 0x00, 0x01, 0x00, 0x00, 0x00, 0x80, 0xff, 0xff, 0xff, 0xff, 0xff, 0xff, 0xff, 0x01, 0x00, 0x00, 0x00, 0xab, 0x0e, 0xa0, 0x37, 0xb2, 0x00, 0x00, 0x00, 0x66, 0x75, 0x6e, 0x63, 0x74, 0x69, 0x6f, 0x6e, 0x61, 0x6c, 0x5f, 0x31, 0x2f, 0x72, 0x65, 0x5f, 0x6c, 0x75, 0x5f, 0x35, 0x5f, 0x31, 0x2f, 0x52, 0x65, 0x6c, 0x75, 0x3b, 0x66, 0x75, 0x6e, 0x63, 0x74, 0x69, 0x6f, 0x6e, 0x61, 0x6c, 0x5f, 0x31, 0x2f, 0x62, 0x61, 0x74, 0x63, 0x68, 0x5f, 0x6e, 0x6f, 0x72, 0x6d, 0x61, 0x6c, 0x69, 0x7a, 0x61, 0x74, 0x69, 0x6f, 0x6e, 0x5f, 0x35, 0x5f, 0x31, 0x2f, 0x62, 0x61, 0x74, 0x63, 0x68, 0x6e, 0x6f, 0x72, 0x6d, 0x2f, 0x61, 0x64, 0x64, 0x5f, 0x31, 0x3b, 0x66, 0x75, 0x6e, 0x63, 0x74, 0x69, 0x6f, 0x6e, 0x61, 0x6c, 0x5f, 0x31, 0x2f, 0x62, 0x61, 0x74, 0x63, 0x68, 0x5f, 0x6e, 0x6f, 0x72, 0x6d, 0x61, 0x6c, 0x69, 0x7a, 0x61, 0x74, 0x69, 0x6f, 0x6e, 0x5f, 0x35, 0x5f, 0x31, 0x2f, 0x62, 0x61, 0x74, 0x63, 0x68, 0x6e, 0x6f, 0x72, 0x6d, 0x2f, 0x6d, 0x75, 0x6c, 0x5f, 0x31, 0x3b, 0x66, 0x75, 0x6e, 0x63, 0x74, 0x69, 0x6f, 0x6e, 0x61, 0x6c, 0x5f, 0x31, 0x2f, 0x64, 0x65, 0x70, 0x74, 0x68, 0x77, 0x69, 0x73, 0x65, 0x5f, 0x63, 0x6f, 0x6e, 0x76, 0x32, 0x64, 0x5f, 0x32, 0x5f, 0x31, 0x2f, 0x64, 0x65, 0x70, 0x74, 0x68, 0x77, 0x69, 0x73, 0x65, 0x3b, 0x00, 0x00, 0x04, 0x00, 0x00, 0x00, 0x01, 0x00, 0x00, 0x00, 0x06, 0x00, 0x00, 0x00, 0x06, 0x00, 0x00, 0x00, 0x20, 0x00, 0x00, 0x00, 0xf2, 0xd6, 0xff, 0xff, 0x00, 0x00, 0x00, 0x01, 0x18, 0x00, 0x00, 0x00, 0x28, 0x00, 0x00, 0x00, 0x48, 0x00, 0x00, 0x00, 0x1c, 0x00, 0x00, 0x00, 0x00, 0x00, 0x00, 0x09, 0xb8, 0x00, 0x00, 0x00, 0x04, 0x00, 0x00, 0x00, 0xff, 0xff, 0xff, 0xff, 0x0c, 0x00, 0x00, 0x00, 0x0c, 0x00, 0x00, 0x00, 0x20, 0x00, 0x00, 0x00, 0xdc, 0xd6, 0xff, 0xff, 0x08, 0x00, 0x00, 0x00, 0x14, 0x00, 0x00, 0x00, 0x01, 0x00, 0x00, 0x00, 0x80, 0xff, 0xff, 0xff, 0xff, 0xff, 0xff, 0xff, 0x00, 0x00, 0x00, 0x00, 0x01, 0x00, 0x00, 0x00, 0x40, 0xe0, 0xc1, 0x38, 0x74, 0x00, 0x00, 0x00, 0x66, 0x75, 0x6e, 0x63, 0x74, 0x69, 0x6f, 0x6e, 0x61, 0x6c, 0x5f, 0x31, 0x2f, 0x72, 0x65, 0x5f, 0x6c, 0x75, 0x5f, 0x34, 0x5f, 0x31, 0x2f, 0x52, 0x65, 0x6c, 0x75, 0x3b, 0x66, 0x75, 0x6e, 0x63, 0x74, 0x69, 0x6f, 0x6e, 0x61, 0x6c, 0x5f, 0x31, 0x2f, 0x62, 0x61, 0x74, 0x63, 0x68, 0x5f, 0x6e, 0x6f, 0x72, 0x6d, 0x61, 0x6c, 0x69, 0x7a, 0x61, 0x74, 0x69, 0x6f, 0x6e, 0x5f, 0x34, 0x5f, 0x31, 0x2f, 0x62, 0x61, 0x74, 0x63, 0x68, 0x6e, 0x6f, 0x72, 0x6d, 0x2f, 0x61, 0x64, 0x64, 0x5f, 0x31, 0x3b, 0x66, 0x75, 0x6e, 0x63, 0x74, 0x69, 0x6f, 0x6e, 0x61, 0x6c, 0x5f, 0x31, 0x2f, 0x63, 0x6f, 0x6e, 0x76, 0x32, 0x64, 0x5f, 0x32, 0x5f, 0x31, 0x2f, 0x63, 0x6f, 0x6e, 0x76, 0x6f, 0x6c, 0x75, 0x74, 0x69, 0x6f, 0x6e, 0x00, 0x00, 0x00, 0x00, 0x04, 0x00, 0x00, 0x00, 0x01, 0x00, 0x00, 0x00, 0x0c, 0x00, 0x00, 0x00, 0x0c, 0x00, 0x00, 0x00, 0x20, 0x00, 0x00, 0x00, 0xda, 0xd7, 0xff, 0xff, 0x00, 0x00, 0x00, 0x01, 0x18, 0x00, 0x00, 0x00, 0x28, 0x00, 0x00, 0x00, 0x44, 0x00, 0x00, 0x00, 0x1b, 0x00, 0x00, 0x00, 0x00, 0x00, 0x00, 0x09, 0xf0, 0x00, 0x00, 0x00, 0x04, 0x00, 0x00, 0x00
};

const uint8_t drone_model_segment_12[] PROGMEM = {
    0xff, 0xff, 0xff, 0xff, 0x0c, 0x00, 0x00, 0x00, 0x0c, 0x00, 0x00, 0x00, 0x18, 0x00, 0x00, 0x00, 0xc4, 0xd7, 0xff, 0xff, 0x08, 0x00, 0x00, 0x00, 0x10, 0x00, 0x00, 0x00, 0x01, 0x00, 0x00, 0x00, 0x80, 0xff, 0xff, 0xff, 0xff, 0xff, 0xff, 0xff, 0x01, 0x00, 0x00, 0x00, 0x5b, 0xfd, 0x49, 0x39, 0xb2, 0x00, 0x00, 0x00, 0x66, 0x75, 0x6e, 0x63, 0x74, 0x69, 0x6f, 0x6e, 0x61, 0x6c, 0x5f, 0x31, 0x2f, 0x72, 0x65, 0x5f, 0x6c, 0x75, 0x5f, 0x33, 0x5f, 0x31, 0x2f, 0x52, 0x65, 0x6c, 0x75, 0x3b, 0x66, 0x75, 0x6e, 0x63, 0x74, 0x69, 0x6f, 0x6e, 0x61, 0x6c, 0x5f, 0x31, 0x2f, 0x62, 0x61, 0x74, 0x63, 0x68, 0x5f, 0x6e, 0x6f, 0x72, 0x6d, 0x61, 0x6c, 0x69, 0x7a, 0x61, 0x74, 0x69, 0x6f, 0x6e, 0x5f, 0x33, 0x5f, 0x31, 0x2f, 0x62, 0x61, 0x74, 0x63, 0x68, 0x6e, 0x6f, 0x72, 0x6d, 0x2f, 0x61, 0x64, 0x64, 0x5f, 0x31, 0x3b, 0x66, 0x75, 0x6e, 0x63, 0x74, 0x69, 0x6f, 0x6e, 0x61, 0x6c, 0x5f, 0x31, 0x2f, 0x62, 0x61, 0x74, 0x63, 0x68, 0x5f, 0x6e, 0x6f, 0x72, 0x6d, 0x61, 0x6c, 0x69, 0x7a, 0x61, 0x74, 0x69, 0x6f, 0x6e, 0x5f, 0x33, 0x5f, 0x31, 0x2f, 0x62, 0x61, 0x74, 0x63, 0x68, 0x6e, 0x6f, 0x72, 0x6d, 0x2f, 0x6d, 0x75, 0x6c, 0x5f, 0x31, 0x3b, 0x66, 0x75, 0x6e, 0x63, 0x74, 0x69, 0x6f, 0x6e, 0x61, 0x6c, 0x5f, 0x31, 0x2f, 0x64, 0x65, 0x70, 0x74, 0x68, 0x77, 0x69, 0x73, 0x65, 0x5f, 0x63, 0x6f, 0x6e, 0x76, 0x32, 0x64, 0x5f, 0x31, 0x5f, 0x32, 0x2f, 0x64, 0x65, 0x70, 0x74, 0x68, 0x77, 0x69, 0x73, 0x65, 0x3b, 0x00, 0x00, 0x04, 0x00, 0x00, 0x00, 0x01, 0x00, 0x00, 0x00, 0x0c, 0x00, 0x00, 0x00, 0x0c, 0x00, 0x00, 0x00, 0x18, 0x00, 0x00, 0x00, 0xfa, 0xd8, 0xff, 0xff, 0x00, 0x00, 0x00, 0x01, 0x18, 0x00, 0x00, 0x00, 0x28, 0x00, 0x00, 0x00, 0x48, 0x00, 0x00, 0x00, 0x1a, 0x00, 0x00, 0x00, 0x00, 0x00, 0x00, 0x09, 0xb8, 0x00, 0x00, 0x00, 0x04, 0x00, 0x00, 0x00, 0xff, 0xff, 0xff, 0xff, 0x18, 0x00, 0x00, 0x00, 0x18, 0x00, 0x00, 0x00, 0x18, 0x00, 0x00, 0x00, 0xe4, 0xd8, 0xff, 0xff, 0x08, 0x00, 0x00, 0x00, 0x14, 0x00, 0x00, 0x00, 0x01, 0x00, 0x00, 0x00, 0x80, 0xff, 0xff, 0xff, 0xff, 0xff, 0xff, 0xff, 0x00, 0x00, 0x00, 0x00, 0x01, 0x00, 0x00, 0x00, 0xb3, 0xc0, 0x17, 0x3a, 0x74, 0x00, 0x00, 0x00, 0x66, 0x75, 0x6e, 0x63, 0x74, 0x69, 0x6f, 0x6e, 0x61, 0x6c, 0x5f, 0x31, 0x2f, 0x72, 0x65, 0x5f, 0x6c, 0x75, 0x5f, 0x32, 0x5f, 0x31, 0x2f, 0x52, 0x65, 0x6c, 0x75, 0x3b, 0x66, 0x75, 0x6e, 0x63, 0x74, 0x69, 0x6f, 0x6e, 0x61, 0x6c, 0x5f, 0x31, 0x2f, 0x62, 0x61, 0x74, 0x63, 0x68, 0x5f, 0x6e, 0x6f, 0x72, 0x6d, 0x61, 0x6c, 0x69, 0x7a, 0x61, 0x74, 0x69, 0x6f, 0x6e, 0x5f, 0x32, 0x5f, 0x31, 0x2f, 0x62, 0x61, 0x74, 0x63, 0x68, 0x6e, 0x6f, 0x72, 0x6d, 0x2f, 0x61, 0x64, 0x64, 0x5f, 0x31, 0x3b, 0x66, 0x75, 0x6e, 0x63, 0x74, 0x69, 0x6f, 0x6e, 0x61, 0x6c, 0x5f, 0x31, 0x2f, 0x63, 0x6f, 0x6e, 0x76, 0x32, 0x64, 0x5f, 0x31, 0x5f, 0x32, 0x2f, 0x63, 0x6f, 0x6e, 0x76, 0x6f, 0x6c, 0x75, 0x74, 0x69, 0x6f, 0x6e, 0x00, 0x00, 0x00, 0x00, 0x04, 0x00, 0x00, 0x00, 0x01, 0x00, 0x00, 0x00, 0x18, 0x00, 0x00, 0x00, 0x18, 0x00, 0x00, 0x00, 0x18, 0x00, 0x00, 0x00, 0xe2, 0xd9, 0xff, 0xff, 0x00, 0x00, 0x00, 0x01, 0x18, 0x00, 0x00, 0x00, 0x28, 0x00, 0x00, 0x00, 0x44, 0x00, 0x00, 0x00, 0x19, 0x00, 0x00, 0x00, 0x00, 0x00, 0x00, 0x09, 0xf0, 0x00, 0x00, 0x00, 0x04, 0x00, 0x00, 0x00, 0xff, 0xff, 0xff, 0xff, 0x18, 0x00, 0x00, 0x00, 0x18, 0x00, 0x00, 0x00, 0x10, 0x00, 0x00, 0x00, 0xcc, 0xd9, 0xff, 0xff, 0x08, 0x00, 0x00, 0x00, 0x10, 0x00, 0x00, 0x00, 0x01, 0x00, 0x00, 0x00, 0x80, 0xff, 0xff, 0xff, 0xff, 0xff, 0xff, 0xff, 0x01, 0x00, 0x00, 0x00, 0x92, 0x0f, 0x96, 0x3a, 0xb0, 0x00, 0x00, 0x00, 0x66, 0x75, 0x6e, 0x63, 0x74, 0x69, 0x6f, 0x6e, 0x61, 0x6c, 0x5f, 0x31, 0x2f, 0x72, 0x65, 0x5f, 0x6c, 0x75, 0x5f, 0x31, 0x5f, 0x32, 0x2f, 0x52, 0x65, 0x6c, 0x75, 0x3b, 0x66, 0x75, 0x6e, 0x63, 0x74, 0x69, 0x6f, 0x6e, 0x61, 0x6c, 0x5f, 0x31, 0x2f, 0x62, 0x61, 0x74, 0x63, 0x68, 0x5f, 0x6e, 0x6f, 0x72, 0x6d, 0x61, 0x6c, 0x69, 0x7a, 0x61, 0x74, 0x69, 0x6f, 0x6e, 0x5f, 0x31, 0x5f, 0x32, 0x2f, 0x62, 0x61, 0x74, 0x63, 0x68, 0x6e, 0x6f, 0x72, 0x6d, 0x2f, 0x61, 0x64, 0x64, 0x5f, 0x31, 0x3b, 0x66, 0x75, 0x6e, 0x63, 0x74, 0x69, 0x6f, 0x6e, 0x61, 0x6c, 0x5f, 0x31, 0x2f, 0x62, 0x61, 0x74, 0x63, 0x68, 0x5f, 0x6e, 0x6f, 0x72, 0x6d, 0x61, 0x6c, 0x69, 0x7a, 0x61, 0x74, 0x69, 0x6f, 0x6e, 0x5f, 0x31, 0x5f, 0x32, 0x2f, 0x62, 0x61, 0x74, 0x63, 0x68, 0x6e, 0x6f, 0x72, 0x6d, 0x2f, 0x6d, 0x75, 0x6c, 0x5f, 0x31, 0x3b, 0x66, 0x75, 0x6e, 0x63, 0x74, 0x69, 0x6f, 0x6e, 0x61, 0x6c, 0x5f, 0x31, 0x2f, 0x64, 0x65, 0x70, 0x74, 0x68, 0x77, 0x69, 0x73, 0x65, 0x5f, 0x63, 0x6f, 0x6e, 0x76, 0x32, 0x64, 0x5f, 0x31, 0x2f, 0x64, 0x65, 0x70, 0x74, 0x68, 0x77, 0x69, 0x73, 0x65, 0x3b, 0x00, 0x00, 0x00, 0x00, 0x04, 0x00, 0x00, 0x00, 0x01, 0x00, 0x00, 0x00, 0x18, 0x00, 0x00, 0x00, 0x18, 0x00, 0x00, 0x00, 0x10, 0x00, 0x00, 0x00, 0x02, 0xdb, 0xff, 0xff, 0x00, 0x00, 0x00, 0x01, 0x18, 0x00, 0x00, 0x00, 0x28, 0x00, 0x00, 0x00, 0x48, 0x00, 0x00, 0x00, 0x18, 0x00, 0x00, 0x00, 0x00, 0x00, 0x00, 0x09, 0xb0, 0x00, 0x00, 0x00, 0x04, 0x00, 0x00, 0x00, 0xff, 0xff, 0xff, 0xff, 0x30, 0x00, 0x00, 0x00, 0x30, 0x00, 0x00, 0x00, 0x10, 0x00, 0x00, 0x00, 0xec, 0xda, 0xff, 0xff, 0x08, 0x00, 0x00, 0x00, 0x14, 0x00, 0x00, 0x00, 0x01, 0x00, 0x00, 0x00, 0x80, 0xff, 0xff, 0xff, 0xff, 0xff, 0xff, 0xff, 0x00, 0x00, 0x00, 0x00, 0x01, 0x00, 0x00, 0x00, 0x6d, 0x54, 0x54, 0x3b, 0x6e, 0x00, 0x00, 0x00, 0x66, 0x75, 0x6e, 0x63, 0x74, 0x69, 0x6f, 0x6e, 0x61, 0x6c, 0x5f, 0x31, 0x2f, 0x72, 0x65, 0x5f, 0x6c, 0x75, 0x5f, 0x31, 0x2f, 0x52, 0x65, 0x6c, 0x75, 0x3b, 0x66, 0x75, 0x6e, 0x63, 0x74, 0x69, 0x6f, 0x6e, 0x61, 0x6c, 0x5f, 0x31, 0x2f, 0x62, 0x61, 0x74, 0x63, 0x68, 0x5f, 0x6e, 0x6f, 0x72, 0x6d, 0x61, 0x6c, 0x69, 0x7a, 0x61, 0x74, 0x69, 0x6f, 0x6e, 0x5f, 0x31, 0x2f, 0x62, 0x61, 0x74, 0x63, 0x68, 0x6e, 0x6f, 0x72, 0x6d, 0x2f, 0x61, 0x64, 0x64, 0x5f, 0x31, 0x3b, 0x66, 0x75, 0x6e, 0x63, 0x74, 0x69, 0x6f, 0x6e, 0x61, 0x6c, 0x5f, 0x31, 0x2f, 0x63, 0x6f, 0x6e, 0x76, 0x32, 0x64, 0x5f, 0x31, 0x2f, 0x63, 0x6f, 0x6e, 0x76, 0x6f, 0x6c, 0x75, 0x74, 0x69, 0x6f, 0x6e, 0x00, 0x00, 0x04, 0x00, 0x00, 0x00, 0x01, 0x00, 0x00, 0x00, 0x30, 0x00, 0x00, 0x00, 0x30, 0x00, 0x00, 0x00, 0x10, 0x00, 0x00, 0x00, 0x3a, 0xdc, 0xff, 0xff, 0x00, 0x00, 0x00, 0x01, 0x14, 0x00, 0x00, 0x00, 0xe8, 0x00, 0x00, 0x00, 0x17, 0x00, 0x00, 0x00, 0x00, 0x00, 0x00, 0x09, 0xf4, 0x00, 0x00, 0x00
};

const uint8_t drone_model_segment_13[] PROGMEM = {
    0xb4, 0xdb, 0xff, 0xff, 0x08, 0x00, 0x00, 0x00, 0x8c, 0x00, 0x00, 0x00, 0x10, 0x00, 0x00, 0x00, 0x00, 0x00, 0x00, 0x00, 0x00, 0x00, 0x00, 0x00, 0x00, 0x00, 0x00, 0x00, 0x00, 0x00, 0x00, 0x00, 0x00, 0x00, 0x00, 0x00, 0x00, 0x00, 0x00, 0x00, 0x00, 0x00, 0x00, 0x00, 0x00, 0x00, 0x00, 0x00, 0x00, 0x00, 0x00, 0x00, 0x00, 0x00, 0x00, 0x00, 0x00, 0x00, 0x00, 0x00, 0x00, 0x00, 0x00, 0x00, 0x00, 0x00, 0x00, 0x00, 0x00, 0x00, 0x00, 0x00, 0x00, 0x00, 0x00, 0x00, 0x00, 0x00, 0x00, 0x00, 0x00, 0x00, 0x00, 0x00, 0x00, 0x00, 0x00, 0x00, 0x00, 0x00, 0x00, 0x00, 0x00, 0x00, 0x00, 0x00, 0x00, 0x00, 0x00, 0x00, 0x00, 0x00, 0x00, 0x00, 0x00, 0x00, 0x00, 0x00, 0x00, 0x00, 0x00, 0x00, 0x00, 0x00, 0x00, 0x00, 0x00, 0x00, 0x00, 0x00, 0x00, 0x00, 0x00, 0x00, 0x00, 0x00, 0x00, 0x00, 0x00, 0x00, 0x00, 0x00, 0x00, 0x00, 0x00, 0x00, 0x00, 0x00, 0x00, 0x00, 0x00, 0x00, 0x00, 0x00, 0x00, 0x00, 0x00, 0x00, 0x10, 0x00, 0x00, 0x00, 0xcb, 0xd4, 0xc1, 0x3a, 0x7c, 0x13, 0xb9, 0x3a, 0xe2, 0x3a, 0xc7, 0x3a, 0x3d, 0x79, 0xc2, 0x3a, 0xae, 0x79, 0xc5, 0x3a, 0x86, 0xa1, 0xca, 0x3a, 0xf5, 0x12, 0xaf, 0x3a, 0xa6, 0x39, 0xc6, 0x3a, 0xe5, 0x0d, 0xa2, 0x3a, 0xff, 0xc2, 0xb2, 0x3a, 0xe8, 0xe4, 0xb8, 0x3a, 0x7d, 0xbd, 0xb9, 0x3a, 0x32, 0x99, 0xad, 0x3a, 0xe7, 0x82, 0xae, 0x3a, 0x31, 0xee, 0xc5, 0x3a, 0xbe, 0xdb, 0xc0, 0x3a, 0x13, 0x00, 0x00, 0x00, 0x74, 0x66, 0x6c, 0x2e, 0x70, 0x73, 0x65, 0x75, 0x64, 0x6f, 0x5f, 0x71, 0x63, 0x6f, 0x6e, 0x73, 0x74, 0x31, 0x38, 0x00, 0x04, 0x00, 0x00, 0x00, 0x10, 0x00, 0x00, 0x00, 0x03, 0x00, 0x00, 0x00, 0x03, 0x00, 0x00, 0x00, 0x01, 0x00, 0x00, 0x00, 0x5a, 0xdd, 0xff, 0xff, 0x00, 0x00, 0x00, 0x01, 0x14, 0x00, 0x00, 0x00, 0xe4, 0x00, 0x00, 0x00, 0x15, 0x00, 0x00, 0x00, 0x00, 0x00, 0x00, 0x02, 0xf0, 0x00, 0x00, 0x00, 0xd4, 0xdc, 0xff, 0xff, 0x08, 0x00, 0x00, 0x00, 0x88, 0x00, 0x00, 0x00, 0x10, 0x00, 0x00, 0x00, 0x00, 0x00, 0x00, 0x00, 0x00, 0x00, 0x00, 0x00, 0x00, 0x00, 0x00, 0x00, 0x00, 0x00, 0x00, 0x00, 0x00, 0x00, 0x00, 0x00, 0x00, 0x00, 0x00, 0x00, 0x00, 0x00, 0x00, 0x00, 0x00, 0x00, 0x00, 0x00, 0x00, 0x00, 0x00, 0x00, 0x00, 0x00, 0x00, 0x00, 0x00, 0x00, 0x00, 0x00, 0x00, 0x00, 0x00, 0x00, 0x00, 0x00, 0x00, 0x00, 0x00, 0x00, 0x00, 0x00, 0x00, 0x00, 0x00, 0x00, 0x00, 0x00, 0x00, 0x00, 0x00, 0x00, 0x00, 0x00, 0x00, 0x00, 0x00, 0x00, 0x00, 0x00, 0x00, 0x00, 0x00, 0x00, 0x00, 0x00, 0x00, 0x00, 0x00, 0x00, 0x00, 0x00, 0x00, 0x00, 0x00, 0x00, 0x00, 0x00, 0x00, 0x00, 0x00, 0x00, 0x00, 0x00, 0x00, 0x00, 0x00, 0x00, 0x00, 0x00, 0x00, 0x00, 0x00, 0x00, 0x00, 0x00, 0x00, 0x00, 0x00, 0x00, 0x00, 0x00, 0x00, 0x00, 0x00, 0x00, 0x00, 0x00, 0x00, 0x00, 0x00, 0x00, 0x00, 0x00, 0x10, 0x00, 0x00, 0x00, 0xf6, 0x95, 0xa0, 0x36, 0x60, 0x6c, 0x83, 0x36, 0x31, 0xb7, 0x6d, 0x36, 0x13, 0xf0, 0x9d, 0x36, 0xf6, 0x89, 0x94, 0x36, 0x71, 0x2f, 0x89, 0x36, 0xe6, 0xd8, 0x9e, 0x36, 0xe9, 0x09, 0xa5, 0x36, 0xa7, 0xc4, 0xa7, 0x36, 0x32, 0xa9, 0x87, 0x36, 0xc2, 0x55, 0xa9, 0x36, 0x40, 0x4e, 0x6d, 0x36, 0x5a, 0x91, 0x9d, 0x36, 0x4f, 0xae, 0xa8, 0x36, 0x21, 0x35, 0xa1, 0x36, 0xe1, 0xb2, 0x98, 0x36, 0x13, 0x00, 0x00, 0x00, 0x74, 0x66, 0x6c, 0x2e, 0x70, 0x73, 0x65, 0x75, 0x64, 0x6f, 0x5f, 0x71, 0x63, 0x6f, 0x6e, 0x73, 0x74, 0x31, 0x37, 0x00, 0x01, 0x00, 0x00, 0x00, 0x10, 0x00, 0x00, 0x00, 0x6a, 0xde, 0xff, 0xff, 0x00, 0x00, 0x00, 0x01, 0x14, 0x00, 0x00, 0x00, 0xe8, 0x00, 0x00, 0x00, 0x15, 0x00, 0x00, 0x00, 0x00, 0x00, 0x00, 0x02, 0xf4, 0x00, 0x00, 0x00, 0xe4, 0xdd, 0xff, 0xff, 0x08, 0x00, 0x00, 0x00, 0x8c, 0x00, 0x00, 0x00, 0x10, 0x00, 0x00, 0x00, 0x00, 0x00, 0x00, 0x00, 0x00, 0x00, 0x00, 0x00, 0x00, 0x00, 0x00, 0x00, 0x00, 0x00, 0x00, 0x00, 0x00, 0x00, 0x00, 0x00, 0x00, 0x00, 0x00, 0x00, 0x00, 0x00, 0x00, 0x00, 0x00, 0x00, 0x00, 0x00, 0x00, 0x00, 0x00, 0x00, 0x00, 0x00, 0x00, 0x00, 0x00, 0x00, 0x00, 0x00, 0x00, 0x00, 0x00, 0x00, 0x00, 0x00, 0x00, 0x00, 0x00, 0x00, 0x00, 0x00, 0x00, 0x00, 0x00, 0x00, 0x00, 0x00, 0x00, 0x00, 0x00, 0x00, 0x00, 0x00, 0x00, 0x00, 0x00, 0x00, 0x00, 0x00, 0x00, 0x00, 0x00, 0x00, 0x00, 0x00, 0x00, 0x00, 0x00, 0x00, 0x00, 0x00, 0x00, 0x00, 0x00, 0x00, 0x00, 0x00, 0x00, 0x00, 0x00, 0x00, 0x00, 0x00, 0x00, 0x00, 0x00, 0x00, 0x00, 0x00, 0x00, 0x00, 0x00, 0x00, 0x00, 0x00, 0x00, 0x00, 0x00, 0x00, 0x00, 0x00, 0x00, 0x00, 0x00, 0x00, 0x00, 0x00, 0x00, 0x00, 0x00, 0x00, 0x00, 0x00, 0x00, 0x00, 0x00, 0x00, 0x10, 0x00, 0x00, 0x00, 0x5f, 0x97, 0xc2, 0x36, 0x46, 0xcd, 0xb9, 0x36, 0xe1, 0x02, 0xc8, 0x36, 0x76, 0x3c, 0xc3, 0x36, 0xea, 0x3f, 0xc6, 0x36, 0xef, 0x6c, 0xcb, 0x36, 0xb4, 0xc2, 0xaf, 0x36, 0xa3, 0x00, 0xc7, 0x36, 0x92, 0xb0, 0xa2, 0x36, 0x72, 0x76, 0xb3, 0x36, 0x83, 0x9e, 0xb9, 0x36, 0xf1, 0x77, 0xba, 0x36, 0x76, 0x47, 0xae, 0x36, 0x16, 0x32, 0xaf, 0x36, 0xe2, 0xb4, 0xc6, 0x36, 0x58, 0x9d, 0xc1, 0x36, 0x13, 0x00, 0x00, 0x00, 0x74, 0x66, 0x6c, 0x2e, 0x70, 0x73, 0x65, 0x75, 0x64, 0x6f, 0x5f, 0x71, 0x63, 0x6f, 0x6e, 0x73, 0x74, 0x31, 0x36, 0x00, 0x01, 0x00, 0x00, 0x00, 0x10, 0x00, 0x00, 0x00, 0x7e, 0xdf, 0xff, 0xff, 0x00, 0x00, 0x00, 0x01, 0x14, 0x00, 0x00, 0x00, 0xec, 0x00, 0x00, 0x00, 0x14, 0x00, 0x00, 0x00, 0x00, 0x00, 0x00, 0x09, 0xf8, 0x00, 0x00, 0x00, 0xca, 0xe9, 0xff, 0xff, 0x03, 0x00, 0x00, 0x00, 0x08, 0x00, 0x00, 0x00, 0x8c, 0x00, 0x00, 0x00, 0x10, 0x00, 0x00, 0x00, 0x00, 0x00, 0x00, 0x00, 0x00, 0x00, 0x00, 0x00, 0x00, 0x00, 0x00, 0x00, 0x00, 0x00, 0x00, 0x00, 0x00, 0x00, 0x00, 0x00, 0x00, 0x00, 0x00, 0x00, 0x00, 0x00, 0x00, 0x00, 0x00, 0x00, 0x00, 0x00, 0x00, 0x00, 0x00, 0x00, 0x00, 0x00, 0x00, 0x00, 0x00, 0x00, 0x00, 0x00, 0x00, 0x00, 0x00, 0x00, 0x00, 0x00, 0x00, 0x00, 0x00, 0x00, 0x00, 0x00, 0x00, 0x00, 0x00, 0x00, 0x00, 0x00, 0x00, 0x00, 0x00, 0x00, 0x00, 0x00, 0x00, 0x00, 0x00, 0x00, 0x00, 0x00, 0x00, 0x00, 0x00, 0x00, 0x00, 0x00, 0x00, 0x00, 0x00, 0x00, 0x00, 0x00, 0x00, 0x00, 0x00, 0x00, 0x00, 0x00, 0x00, 0x00, 0x00, 0x00, 0x00, 0x00, 0x00, 0x00, 0x00, 0x00, 0x00, 0x00, 0x00, 0x00, 0x00, 0x00, 0x00, 0x00, 0x00, 0x00, 0x00, 0x00, 0x00, 0x00, 0x00, 0x00, 0x00, 0x00, 0x00, 0x00, 0x00, 0x00, 0x00, 0x00, 0x00, 0x00, 0x00, 0x00, 0x00, 0x00, 0x10, 0x00, 0x00, 0x00, 0x1d, 0x9d, 0xc1, 0x3a, 0x12, 0x74, 0x9e, 0x3a, 0xb0, 0x4d, 0x8f, 0x3a, 0xce, 0x6b, 0xbe, 0x3a, 0xd3, 0x16, 0xb3, 0x3a, 0x83, 0x66, 0xa5, 0x3a, 0x84, 0x84, 0xbf, 0x3a, 0x84, 0xfb, 0xc6, 0x3a
};

const uint8_t drone_model_segment_14[] PROGMEM = {
    0xf9, 0x45, 0xca, 0x3a, 0x01, 0x90, 0xa3, 0x3a, 0x93, 0x29, 0xcc, 0x3a, 0x6d, 0x0e, 0x8f, 0x3a, 0x9a, 0xf9, 0xbd, 0x3a, 0xaf, 0x5f, 0xcb, 0x3a, 0x05, 0x5d, 0xc2, 0x3a, 0xc3, 0x1a, 0xb8, 0x3a, 0x13, 0x00, 0x00, 0x00, 0x74, 0x66, 0x6c, 0x2e, 0x70, 0x73, 0x65, 0x75, 0x64, 0x6f, 0x5f, 0x71, 0x63, 0x6f, 0x6e, 0x73, 0x74, 0x31, 0x35, 0x00, 0x04, 0x00, 0x00, 0x00, 0x01, 0x00, 0x00, 0x00, 0x03, 0x00, 0x00, 0x00, 0x03, 0x00, 0x00, 0x00, 0x10, 0x00, 0x00, 0x00, 0xa2, 0xe0, 0xff, 0xff, 0x00, 0x00, 0x00, 0x01, 0x14, 0x00, 0x00, 0x00, 0x48, 0x01, 0x00, 0x00, 0x13, 0x00, 0x00, 0x00, 0x00, 0x00, 0x00, 0x09, 0x54, 0x01, 0x00, 0x00, 0x1c, 0xe0, 0xff, 0xff, 0x08, 0x00, 0x00, 0x00, 0xcc, 0x00, 0x00, 0x00, 0x18, 0x00, 0x00, 0x00, 0x00, 0x00, 0x00, 0x00, 0x00, 0x00, 0x00, 0x00, 0x00, 0x00, 0x00, 0x00, 0x00, 0x00, 0x00, 0x00, 0x00, 0x00, 0x00, 0x00, 0x00, 0x00, 0x00, 0x00, 0x00, 0x00, 0x00, 0x00, 0x00, 0x00, 0x00, 0x00, 0x00, 0x00, 0x00, 0x00, 0x00, 0x00, 0x00, 0x00, 0x00, 0x00, 0x00, 0x00, 0x00, 0x00, 0x00, 0x00, 0x00, 0x00, 0x00, 0x00, 0x00, 0x00, 0x00, 0x00, 0x00, 0x00, 0x00, 0x00, 0x00, 0x00, 0x00, 0x00, 0x00, 0x00, 0x00, 0x00, 0x00, 0x00, 0x00, 0x00, 0x00, 0x00, 0x00, 0x00, 0x00, 0x00, 0x00, 0x00, 0x00, 0x00, 0x00, 0x00, 0x00, 0x00, 0x00, 0x00, 0x00, 0x00, 0x00, 0x00, 0x00, 0x00, 0x00, 0x00, 0x00, 0x00, 0x00, 0x00, 0x00, 0x00, 0x00, 0x00, 0x00, 0x00, 0x00, 0x00, 0x00, 0x00, 0x00, 0x00, 0x00, 0x00, 0x00, 0x00, 0x00, 0x00, 0x00, 0x00, 0x00, 0x00, 0x00, 0x00, 0x00, 0x00, 0x00, 0x00, 0x00, 0x00, 0x00, 0x00, 0x00, 0x00, 0x00, 0x00, 0x00, 0x00, 0x00, 0x00, 0x00, 0x00, 0x00, 0x00, 0x00, 0x00, 0x00, 0x00, 0x00, 0x00, 0x00, 0x00, 0x00, 0x00, 0x00, 0x00, 0x00, 0x00, 0x00, 0x00, 0x00, 0x00, 0x00, 0x00, 0x00, 0x00, 0x00, 0x00, 0x00, 0x00, 0x00, 0x00, 0x00, 0x00, 0x00, 0x00, 0x00, 0x00, 0x00, 0x00, 0x00, 0x00, 0x00, 0x00, 0x00, 0x00, 0x00, 0x00, 0x00, 0x00, 0x00, 0x00, 0x00, 0x00, 0x00, 0x00, 0x18, 0x00, 0x00, 0x00, 0xd3, 0x08, 0x43, 0x3b, 0x4f, 0xc5, 0x45, 0x3b, 0x87, 0xd5, 0x31, 0x3b, 0x6e, 0xb9, 0x3f, 0x3b, 0x8b, 0x8a, 0x46, 0x3b, 0x48, 0x26, 0x35, 0x3b, 0x9b, 0x85, 0x45, 0x3b, 0xb6, 0x24, 0x43, 0x3b, 0x04, 0xf7, 0x3d, 0x3b, 0xb9, 0xf3, 0x3e, 0x3b, 0x74, 0xfc, 0x46, 0x3b, 0x61, 0xc4, 0x3f, 0x3b, 0x28, 0x3b, 0x43, 0x3b, 0xbd, 0x9c, 0x3d, 0x3b, 0x8e, 0x52, 0x39, 0x3b, 0x9b, 0x20, 0x31, 0x3b, 0x55, 0x33, 0x47, 0x3b, 0xcd, 0x74, 0x40, 0x3b, 0x8a, 0xbb, 0x1a, 0x3b, 0x33, 0xe4, 0x42, 0x3b, 0x31, 0xb8, 0x47, 0x3b, 0xf6, 0x2b, 0x44, 0x3b, 0x4d, 0x41, 0x43, 0x3b, 0x76, 0x6e, 0x2d, 0x3b, 0x13, 0x00, 0x00, 0x00, 0x74, 0x66, 0x6c, 0x2e, 0x70, 0x73, 0x65, 0x75, 0x64, 0x6f, 0x5f, 0x71, 0x63, 0x6f, 0x6e, 0x73, 0x74, 0x31, 0x34, 0x00, 0x04, 0x00, 0x00, 0x00, 0x18, 0x00, 0x00, 0x00, 0x01, 0x00, 0x00, 0x00, 0x01, 0x00, 0x00, 0x00, 0x10, 0x00, 0x00, 0x00, 0x22, 0xe2, 0xff, 0xff, 0x00, 0x00, 0x00, 0x01, 0x14, 0x00, 0x00, 0x00, 0x44, 0x01, 0x00, 0x00, 0x11, 0x00, 0x00, 0x00, 0x00, 0x00, 0x00, 0x02, 0x50, 0x01, 0x00, 0x00, 0x9c, 0xe1, 0xff, 0xff, 0x08, 0x00, 0x00, 0x00, 0xc8, 0x00, 0x00, 0x00, 0x18, 0x00, 0x00, 0x00, 0x00, 0x00, 0x00, 0x00, 0x00, 0x00, 0x00, 0x00, 0x00, 0x00, 0x00, 0x00, 0x00, 0x00, 0x00, 0x00, 0x00, 0x00, 0x00, 0x00, 0x00, 0x00, 0x00, 0x00, 0x00, 0x00, 0x00, 0x00, 0x00, 0x00, 0x00, 0x00, 0x00, 0x00, 0x00, 0x00, 0x00, 0x00, 0x00, 0x00, 0x00, 0x00, 0x00, 0x00, 0x00, 0x00, 0x00, 0x00, 0x00, 0x00, 0x00, 0x00, 0x00, 0x00, 0x00, 0x00, 0x00, 0x00, 0x00, 0x00, 0x00, 0x00, 0x00, 0x00, 0x00, 0x00, 0x00, 0x00, 0x00, 0x00, 0x00, 0x00, 0x00, 0x00, 0x00, 0x00, 0x00, 0x00, 0x00, 0x00, 0x00, 0x00, 0x00, 0x00, 0x00, 0x00, 0x00, 0x00, 0x00, 0x00, 0x00, 0x00, 0x00, 0x00, 0x00, 0x00, 0x00, 0x00, 0x00, 0x00, 0x00, 0x00, 0x00, 0x00, 0x00, 0x00, 0x00, 0x00, 0x00, 0x00, 0x00, 0x00, 0x00, 0x00, 0x00, 0x00, 0x00, 0x00, 0x00, 0x00, 0x00, 0x00, 0x00, 0x00, 0x00, 0x00, 0x00, 0x00, 0x00, 0x00, 0x00, 0x00, 0x00, 0x00, 0x00, 0x00, 0x00, 0x00, 0x00, 0x00, 0x00, 0x00, 0x00, 0x00, 0x00, 0x00, 0x00, 0x00, 0x00, 0x00, 0x00, 0x00, 0x00, 0x00, 0x00, 0x00, 0x00, 0x00, 0x00, 0x00, 0x00, 0x00, 0x00, 0x00, 0x00, 0x00, 0x00, 0x00, 0x00, 0x00, 0x00, 0x00, 0x00, 0x00, 0x00, 0x00, 0x00, 0x00, 0x00, 0x00, 0x00, 0x00, 0x00, 0x00, 0x00, 0x00, 0x00, 0x00, 0x00, 0x00, 0x00, 0x00, 0x18, 0x00, 0x00, 0x00, 0xea, 0xa5, 0x1a, 0x35, 0xac, 0x84, 0x33, 0x35, 0x11, 0x39, 0x3f, 0x35, 0x7f, 0x33, 0x3f, 0x35, 0x2f, 0x77, 0x47, 0x35, 0xec, 0xd1, 0x24, 0x35, 0xa0, 0x91, 0x2e, 0x35, 0x25, 0xb1, 0x38, 0x35, 0xeb, 0x70, 0x2d, 0x35, 0x66, 0xd7, 0x3a, 0x35, 0xfa, 0x4c, 0x3a, 0x35, 0x73, 0x94, 0x1d, 0x35, 0x64, 0x1f, 0x3e, 0x35, 0xb2, 0xf4, 0x2f, 0x35, 0xef, 0x5d, 0x2b, 0x35, 0x7b, 0xcd, 0x43, 0x35, 0x93, 0x0d, 0x3d, 0x35, 0xce, 0x70, 0x35, 0x35, 0x0f, 0xb7, 0xd5, 0x34, 0x6a, 0x34, 0x3b, 0x35, 0x70, 0x54, 0x44, 0x35, 0x50, 0x35, 0x43, 0x35, 0xd3, 0xe7, 0x10, 0x35, 0xda, 0x89, 0x43, 0x35, 0x13, 0x00, 0x00, 0x00, 0x74, 0x66, 0x6c, 0x2e, 0x70, 0x73, 0x65, 0x75, 0x64, 0x6f, 0x5f, 0x71, 0x63, 0x6f, 0x6e, 0x73, 0x74, 0x31, 0x33, 0x00, 0x01, 0x00, 0x00, 0x00, 0x18, 0x00, 0x00, 0x00, 0x92, 0xe3, 0xff, 0xff, 0x00, 0x00, 0x00, 0x01, 0x14, 0x00, 0x00, 0x00, 0x48, 0x01, 0x00, 0x00, 0x11, 0x00, 0x00, 0x00, 0x00, 0x00, 0x00, 0x02, 0x54, 0x01, 0x00, 0x00, 0x0c, 0xe3, 0xff, 0xff, 0x08, 0x00, 0x00, 0x00, 0xcc, 0x00, 0x00, 0x00, 0x18, 0x00, 0x00, 0x00, 0x00, 0x00, 0x00, 0x00, 0x00, 0x00, 0x00, 0x00, 0x00, 0x00, 0x00, 0x00, 0x00, 0x00, 0x00, 0x00, 0x00, 0x00, 0x00, 0x00, 0x00, 0x00, 0x00, 0x00, 0x00, 0x00, 0x00, 0x00, 0x00, 0x00, 0x00, 0x00, 0x00, 0x00, 0x00, 0x00, 0x00, 0x00, 0x00, 0x00, 0x00, 0x00, 0x00, 0x00, 0x00, 0x00, 0x00, 0x00, 0x00, 0x00, 0x00, 0x00, 0x00, 0x00, 0x00, 0x00, 0x00, 0x00, 0x00, 0x00, 0x00, 0x00, 0x00, 0x00, 0x00, 0x00, 0x00, 0x00, 0x00, 0x00, 0x00, 0x00, 0x00, 0x00, 0x00, 0x00, 0x00, 0x00, 0x00, 0x00, 0x00, 0x00, 0x00, 0x00, 0x00, 0x00, 0x00, 0x00, 0x00, 0x00, 0x00, 0x00, 0x00, 0x00, 0x00, 0x00, 0x00, 0x00, 0x00, 0x00, 0x00, 0x00, 0x00, 0x00, 0x00, 0x00, 0x00, 0x00, 0x00, 0x00, 0x00, 0x00, 0x00, 0x00, 0x00, 0x00, 0x00, 0x00, 0x00, 0x00, 0x00, 0x00, 0x00, 0x00, 0x00, 0x00, 0x00, 0x00, 0x00, 0x00, 0x00, 0x00, 0x00, 0x00, 0x00, 0x00, 0x00, 0x00, 0x00, 0x00, 0x00, 0x00, 0x00, 0x00, 0x00, 0x00, 0x00, 0x00, 0x00, 0x00, 0x00, 0x00
};

const uint8_t drone_model_segment_15[] PROGMEM = {
    0x00, 0x00, 0x00, 0x00, 0x00, 0x00, 0x00, 0x00, 0x00, 0x00, 0x00, 0x00, 0x00, 0x00, 0x00, 0x00, 0x00, 0x00, 0x00, 0x00, 0x00, 0x00, 0x00, 0x00, 0x00, 0x00, 0x00, 0x00, 0x00, 0x00, 0x00, 0x00, 0x00, 0x00, 0x00, 0x00, 0x00, 0x00, 0x00, 0x00, 0x00, 0x00, 0x00, 0x00, 0x18, 0x00, 0x00, 0x00, 0x11, 0xa6, 0x64, 0x36, 0x47, 0xdb, 0x67, 0x36, 0xdc, 0x7b, 0x50, 0x36, 0x9f, 0xc4, 0x60, 0x36, 0x82, 0xc2, 0x68, 0x36, 0xe5, 0x5e, 0x54, 0x36, 0x99, 0x90, 0x67, 0x36, 0xc2, 0xc6, 0x64, 0x36, 0x94, 0xb4, 0x5e, 0x36, 0xd7, 0xdc, 0x5f, 0x36, 0x0c, 0x48, 0x69, 0x36, 0x75, 0xd1, 0x60, 0x36, 0x12, 0xe1, 0x64, 0x36, 0xbe, 0x4a, 0x5e, 0x36, 0x49, 0x43, 0x59, 0x36, 0xc1, 0xa7, 0x4f, 0x36, 0x63, 0x88, 0x69, 0x36, 0x49, 0xa0, 0x61, 0x36, 0x98, 0x66, 0x35, 0x36, 0x21, 0x7b, 0x64, 0x36, 0x25, 0x24, 0x6a, 0x36, 0x61, 0xfb, 0x65, 0x36, 0x47, 0xe8, 0x64, 0x36, 0x8b, 0x52, 0x4b, 0x36, 0x13, 0x00, 0x00, 0x00, 0x74, 0x66, 0x6c, 0x2e, 0x70, 0x73, 0x65, 0x75, 0x64, 0x6f, 0x5f, 0x71, 0x63, 0x6f, 0x6e, 0x73, 0x74, 0x31, 0x32, 0x00, 0x01, 0x00, 0x00, 0x00, 0x18, 0x00, 0x00, 0x00, 0x06, 0xe5, 0xff, 0xff, 0x00, 0x00, 0x00, 0x01, 0x14, 0x00, 0x00, 0x00, 0x4c, 0x01, 0x00, 0x00, 0x10, 0x00, 0x00, 0x00, 0x00, 0x00, 0x00, 0x09, 0x58, 0x01, 0x00, 0x00, 0x52, 0xef, 0xff, 0xff, 0x03, 0x00, 0x00, 0x00, 0x08, 0x00, 0x00, 0x00, 0xcc, 0x00, 0x00, 0x00, 0x18, 0x00, 0x00, 0x00, 0x00, 0x00, 0x00, 0x00, 0x00, 0x00, 0x00, 0x00, 0x00, 0x00, 0x00, 0x00, 0x00, 0x00, 0x00, 0x00, 0x00, 0x00, 0x00, 0x00, 0x00, 0x00, 0x00, 0x00, 0x00, 0x00, 0x00, 0x00, 0x00, 0x00, 0x00, 0x00, 0x00, 0x00, 0x00, 0x00, 0x00, 0x00, 0x00, 0x00, 0x00, 0x00, 0x00, 0x00, 0x00, 0x00, 0x00, 0x00, 0x00, 0x00, 0x00, 0x00, 0x00, 0x00, 0x00, 0x00, 0x00, 0x00, 0x00, 0x00, 0x00, 0x00, 0x00, 0x00, 0x00, 0x00, 0x00, 0x00, 0x00, 0x00, 0x00, 0x00, 0x00, 0x00, 0x00, 0x00, 0x00, 0x00, 0x00, 0x00, 0x00, 0x00, 0x00, 0x00, 0x00, 0x00, 0x00, 0x00, 0x00, 0x00, 0x00, 0x00, 0x00, 0x00, 0x00, 0x00, 0x00, 0x00, 0x00, 0x00, 0x00, 0x00, 0x00, 0x00, 0x00, 0x00, 0x00, 0x00, 0x00, 0x00, 0x00, 0x00, 0x00, 0x00, 0x00, 0x00, 0x00, 0x00, 0x00, 0x00, 0x00, 0x00, 0x00, 0x00, 0x00, 0x00, 0x00, 0x00, 0x00, 0x00, 0x00, 0x00, 0x00, 0x00, 0x00, 0x00, 0x00, 0x00, 0x00, 0x00, 0x00, 0x00, 0x00, 0x00, 0x00, 0x00, 0x00, 0x00, 0x00, 0x00, 0x00, 0x00, 0x00, 0x00, 0x00, 0x00, 0x00, 0x00, 0x00, 0x00, 0x00, 0x00, 0x00, 0x00, 0x00, 0x00, 0x00, 0x00, 0x00, 0x00, 0x00, 0x00, 0x00, 0x00, 0x00, 0x00, 0x00, 0x00, 0x00, 0x00, 0x00, 0x00, 0x00, 0x00, 0x00, 0x00, 0x00, 0x00, 0x00, 0x00, 0x00, 0x00, 0x00, 0x00, 0x00, 0x00, 0x18, 0x00, 0x00, 0x00, 0x33, 0x71, 0x82, 0x3a, 0x6a, 0x6b, 0x97, 0x3a, 0xce, 0x4a, 0xa1, 0x3a, 0x1b, 0x46, 0xa1, 0x3a, 0xa4, 0x3e, 0xa8, 0x3a, 0x9f, 0x05, 0x8b, 0x3a, 0xb0, 0x3e, 0x93, 0x3a, 0x94, 0xc8, 0x9b, 0x3a, 0x2c, 0x4b, 0x92, 0x3a, 0xb4, 0x98, 0x9d, 0x3a, 0xf3, 0x23, 0x9d, 0x3a, 0x42, 0xea, 0x84, 0x3a, 0x38, 0x5d, 0xa0, 0x3a, 0x2f, 0x6a, 0x94, 0x3a, 0x4c, 0x8b, 0x90, 0x3a, 0xb6, 0x27, 0xa5, 0x3a, 0x43, 0x76, 0x9f, 0x3a, 0x84, 0x0a, 0x99, 0x3a, 0x8b, 0x43, 0x34, 0x3a, 0x29, 0xe7, 0x9d, 0x3a, 0x8b, 0x99, 0xa5, 0x3a, 0x5c, 0xa7, 0xa4, 0x3a, 0xfb, 0x72, 0x74, 0x3a, 0xab, 0xee, 0xa4, 0x3a, 0x13, 0x00, 0x00, 0x00, 0x74, 0x66, 0x6c, 0x2e, 0x70, 0x73, 0x65, 0x75, 0x64, 0x6f, 0x5f, 0x71, 0x63, 0x6f, 0x6e, 0x73, 0x74, 0x31, 0x31, 0x00, 0x04, 0x00, 0x00, 0x00, 0x01, 0x00, 0x00, 0x00, 0x03, 0x00, 0x00, 0x00, 0x03, 0x00, 0x00, 0x00, 0x18, 0x00, 0x00, 0x00, 0x8a, 0xe6, 0xff, 0xff, 0x00, 0x00, 0x00, 0x01, 0x14, 0x00, 0x00, 0x00, 0xa8, 0x01, 0x00, 0x00, 0x0f, 0x00, 0x00, 0x00, 0x00, 0x00, 0x00, 0x09, 0xb4, 0x01, 0x00, 0x00, 0x04, 0xe6, 0xff, 0xff, 0x08, 0x00, 0x00, 0x00, 0x0c, 0x01, 0x00, 0x00, 0x20, 0x00, 0x00, 0x00, 0x00, 0x00, 0x00, 0x00, 0x00, 0x00, 0x00, 0x00, 0x00, 0x00, 0x00, 0x00, 0x00, 0x00, 0x00, 0x00, 0x00, 0x00, 0x00, 0x00, 0x00, 0x00, 0x00, 0x00, 0x00, 0x00, 0x00, 0x00, 0x00, 0x00, 0x00, 0x00, 0x00, 0x00, 0x00, 0x00, 0x00, 0x00, 0x00, 0x00, 0x00, 0x00, 0x00, 0x00, 0x00, 0x00, 0x00, 0x00, 0x00, 0x00, 0x00, 0x00, 0x00, 0x00, 0x00, 0x00, 0x00, 0x00, 0x00, 0x00, 0x00, 0x00, 0x00, 0x00, 0x00, 0x00, 0x00, 0x00, 0x00, 0x00, 0x00, 0x00, 0x00, 0x00, 0x00, 0x00, 0x00, 0x00, 0x00, 0x00, 0x00, 0x00, 0x00, 0x00, 0x00, 0x00, 0x00, 0x00, 0x00, 0x00, 0x00, 0x00, 0x00, 0x00, 0x00, 0x00, 0x00, 0x00, 0x00, 0x00, 0x00, 0x00, 0x00, 0x00, 0x00, 0x00, 0x00, 0x00, 0x00, 0x00, 0x00, 0x00, 0x00, 0x00, 0x00, 0x00, 0x00, 0x00, 0x00, 0x00, 0x00, 0x00, 0x00, 0x00, 0x00, 0x00, 0x00, 0x00, 0x00, 0x00, 0x00, 0x00, 0x00, 0x00, 0x00, 0x00, 0x00, 0x00, 0x00, 0x00, 0x00, 0x00, 0x00, 0x00, 0x00, 0x00, 0x00, 0x00, 0x00, 0x00, 0x00, 0x00, 0x00, 0x00, 0x00, 0x00, 0x00, 0x00, 0x00, 0x00, 0x00, 0x00, 0x00, 0x00, 0x00, 0x00, 0x00, 0x00, 0x00, 0x00, 0x00, 0x00, 0x00, 0x00, 0x00, 0x00, 0x00, 0x00, 0x00, 0x00, 0x00, 0x00, 0x00, 0x00, 0x00, 0x00, 0x00, 0x00, 0x00, 0x00, 0x00, 0x00, 0x00, 0x00, 0x00, 0x00, 0x00, 0x00, 0x00, 0x00, 0x00, 0x00, 0x00, 0x00, 0x00, 0x00, 0x00, 0x00, 0x00, 0x00, 0x00, 0x00, 0x00, 0x00, 0x00, 0x00, 0x00, 0x00, 0x00, 0x00, 0x00, 0x00, 0x00, 0x00, 0x00, 0x00, 0x00, 0x00, 0x00, 0x00, 0x00, 0x00, 0x00, 0x00, 0x00, 0x00, 0x00, 0x00, 0x00, 0x00, 0x00, 0x00, 0x00, 0x00, 0x00, 0x00, 0x00, 0x00, 0x00, 0x00, 0x00, 0x00, 0x00, 0x00, 0x00, 0x00, 0x00, 0x00, 0x00, 0x00, 0x20, 0x00, 0x00, 0x00, 0x04, 0xbe, 0x24, 0x3b, 0xfd, 0x62, 0x26, 0x3b, 0xc5, 0xfe, 0x1f, 0x3b, 0xd8, 0x2c, 0x23, 0x3b, 0x38, 0xca, 0x28, 0x3b, 0xc1, 0x3f, 0x27, 0x3b, 0xe2, 0x6d, 0x28, 0x3b, 0xd5, 0xdb, 0x27, 0x3b, 0xfc, 0x6c, 0x25, 0x3b, 0x8f, 0xad, 0x1e, 0x3b, 0x0b, 0xbf, 0x24, 0x3b, 0x4d, 0x9f, 0x17, 0x3b, 0x2a, 0xfc, 0x22, 0x3b, 0x03, 0x35, 0x26, 0x3b, 0xd4, 0xf9, 0x26, 0x3b, 0xc7, 0x13, 0x25, 0x3b, 0xc8, 0x91, 0x28, 0x3b, 0x7a, 0x68, 0x21, 0x3b, 0x89, 0x66, 0x22, 0x3b, 0xeb, 0xce, 0x28, 0x3b, 0x7c, 0xde, 0x18, 0x3b, 0xd5, 0x00, 0x27, 0x3b, 0x30, 0x36, 0x14, 0x3b, 0xa8, 0x9d, 0x26, 0x3b, 0x7b, 0xb4, 0x23, 0x3b, 0xa9, 0x39, 0x25, 0x3b, 0x2b, 0x94, 0x28, 0x3b, 0x52, 0x98, 0x15, 0x3b, 0x1d, 0xde, 0x26, 0x3b, 0xf2, 0x07, 0x23, 0x3b, 0x61, 0xff, 0x18, 0x3b, 0xbf, 0x26, 0x25, 0x3b, 0x13, 0x00, 0x00, 0x00, 0x74, 0x66, 0x6c, 0x2e, 0x70, 0x73, 0x65, 0x75, 0x64, 0x6f, 0x5f, 0x71, 0x63, 0x6f, 0x6e, 0x73, 0x74, 0x31, 0x30, 0x00
};

const uint8_t drone_model_segment_16[] PROGMEM = {
